#ifndef EYE_MODEL_H
#define EYE_MODEL_H

const unsigned char eye_model[] = { 28, 0, 0, 0, 84, 70, 76, 51, 20, 0, 32, 0, 28, 0, 24, 0, 20, 0, 16, 0, 12, 0, 0, 0, 8, 0, 4, 0, 20, 0, 0, 0, 28, 0, 0, 0, 136, 0, 0, 0, 224, 0, 0, 0, 100, 44, 9, 0, 116, 44, 9, 0, 132, 54, 9, 0, 3, 0, 0, 0, 1, 0, 0, 0, 4, 0, 0, 0, 170, 210, 246, 255, 12, 0, 0, 0, 28, 0, 0, 0, 60, 0, 0, 0, 15, 0, 0, 0, 115, 101, 114, 118, 105, 110, 103, 95, 100, 101, 102, 97, 117, 108, 116, 0, 1, 0, 0, 0, 4, 0, 0, 0, 148, 255, 255, 255, 17, 0, 0, 0, 4, 0, 0, 0, 8, 0, 0, 0, 111, 117, 116, 112, 117, 116, 95, 48, 0, 0, 0, 0, 1, 0, 0, 0, 4, 0, 0, 0, 30, 213, 246, 255, 4, 0, 0, 0, 11, 0, 0, 0, 105, 110, 112, 117, 116, 95, 108, 97, 121, 101, 114, 0, 2, 0, 0, 0, 52, 0, 0, 0, 4, 0, 0, 0, 220, 255, 255, 255, 20, 0, 0, 0, 4, 0, 0, 0, 19, 0, 0, 0, 67, 79, 78, 86, 69, 82, 83, 73, 79, 78, 95, 77, 69, 84, 65, 68, 65, 84, 65, 0, 8, 0, 12, 0, 8, 0, 4, 0, 8, 0, 0, 0, 19, 0, 0, 0, 4, 0, 0, 0, 19, 0, 0, 0, 109, 105, 110, 95, 114, 117, 110, 116, 105, 109, 101, 95, 118, 101, 114, 115, 105, 111, 110, 0, 21, 0, 0, 0, 128, 43, 9, 0, 120, 43, 9, 0, 104, 42, 9, 0, 80, 10, 8, 0, 64, 8, 8, 0, 48, 8, 0, 0, 32, 6, 0, 0, 12, 6, 0, 0, 244, 5, 0, 0, 100, 1, 0, 0, 212, 0, 0, 0, 204, 0, 0, 0, 196, 0, 0, 0, 188, 0, 0, 0, 180, 0, 0, 0, 172, 0, 0, 0, 164, 0, 0, 0, 156, 0, 0, 0, 148, 0, 0, 0, 116, 0, 0, 0, 4, 0, 0, 0, 234, 213, 246, 255, 4, 0, 0, 0, 96, 0, 0, 0, 16, 0, 0, 0, 0, 0, 0, 0, 8, 0, 14, 0, 8, 0, 4, 0, 8, 0, 0, 0, 16, 0, 0, 0, 36, 0, 0, 0, 0, 0, 6, 0, 8, 0, 4, 0, 6, 0, 0, 0, 4, 0, 0, 0, 0, 0, 0, 0, 12, 0, 24, 0, 20, 0, 16, 0, 12, 0, 4, 0, 12, 0, 0, 0, 48, 212, 158, 28, 179, 77, 134, 21, 2, 0, 0, 0, 2, 0, 0, 0, 4, 0, 0, 0, 6, 0, 0, 0, 50, 46, 49, 56, 46, 48, 0, 0, 86, 214, 246, 255, 4, 0, 0, 0, 16, 0, 0, 0, 49, 46, 49, 52, 46, 48, 0, 0, 0, 0, 0, 0, 0, 0, 0, 0, 112, 203, 246, 255, 116, 203, 246, 255, 120, 203, 246, 255, 124, 203, 246, 255, 128, 203, 246, 255, 132, 203, 246, 255, 136, 203, 246, 255, 140, 203, 246, 255, 146, 214, 246, 255, 4, 0, 0, 0, 128, 0, 0, 0, 159, 18, 186, 61, 91, 169, 23, 189, 145, 154, 117, 189, 79, 135, 56, 189, 82, 225, 76, 62, 241, 128, 50, 190, 250, 122, 56, 62, 224, 129, 40, 190, 22, 167, 223, 189, 239, 127, 166, 189, 76, 164, 221, 61, 35, 130, 172, 61, 109, 167, 41, 190, 178, 42, 106, 188, 133, 99, 62, 62, 54, 250, 17, 62, 250, 140, 21, 190, 239, 247, 166, 61, 15, 184, 67, 61, 16, 30, 46, 62, 220, 249, 5, 62, 53, 100, 144, 61, 59, 78, 71, 62, 5, 109, 229, 189, 84, 218, 21, 188, 13, 213, 26, 62, 226, 226, 71, 190, 179, 67, 127, 61, 97, 168, 23, 186, 167, 214, 19, 190, 77, 11, 209, 61, 37, 108, 130, 62, 30, 215, 246, 255, 4, 0, 0, 0, 128, 4, 0, 0, 180, 124, 52, 62, 124, 42, 41, 190, 64, 121, 96, 189, 212, 237, 103, 190, 170, 83, 107, 189, 23, 201, 12, 62, 48, 220, 162, 190, 214, 189, 130, 190, 143, 222, 26, 187, 172, 30, 68, 62, 174, 253, 70, 62, 78, 47, 120, 62, 157, 134, 61, 62, 102, 237, 53, 61, 2, 198, 150, 61, 204, 191, 59, 190, 92, 40, 155, 190, 136, 24, 239, 190, 181, 114, 46, 62, 124, 83, 209, 61, 60, 42, 119, 62, 220, 245, 181, 61, 72, 243, 47, 62, 151, 184, 120, 62, 169, 179, 253, 190, 141, 3, 132, 190, 79, 65, 154, 189, 161, 224, 255, 188, 134, 11, 172, 189, 12, 203, 131, 189, 86, 5, 65, 190, 251, 89, 247, 188, 218, 199, 46, 60, 83, 186, 165, 61, 63, 217, 216, 189, 250, 130, 55, 189, 226, 80, 56, 62, 115, 95, 140, 190, 101, 248, 173, 189, 74, 201, 42, 62, 236, 100, 134, 190, 178, 131, 228, 60, 246, 11, 247, 60, 41, 220, 110, 190, 169, 68, 2, 190, 201, 200, 25, 62, 117, 192, 135, 61, 124, 211, 237, 61, 179, 0, 53, 62, 242, 107, 86, 189, 187, 242, 193, 188, 193, 87, 188, 188, 236, 68, 57, 189, 198, 86, 35, 190, 223, 189, 124, 190, 204, 177, 74, 61, 56, 88, 205, 189, 134, 247, 35, 190, 34, 76, 255, 61, 182, 116, 102, 60, 25, 111, 137, 190, 168, 174, 102, 190, 179, 30, 25, 62, 147, 131, 36, 61, 189, 94, 1, 190, 42, 253, 125, 188, 64, 249, 136, 186, 33, 59, 199, 61, 225, 47, 108, 60, 148, 212, 140, 62, 173, 43, 70, 62, 3, 5, 114, 62, 5, 209, 59, 61, 83, 178, 221, 189, 197, 0, 90, 189, 179, 118, 5, 61, 11, 227, 14, 61, 203, 233, 238, 61, 31, 118, 242, 189, 80, 72, 214, 189, 8, 34, 143, 61, 56, 135, 185, 189, 239, 0, 172, 60, 214, 195, 37, 188, 49, 36, 116, 60, 204, 18, 77, 61, 230, 250, 82, 61, 234, 181, 253, 188, 170, 217, 2, 189, 48, 63, 249, 187, 241, 159, 210, 190, 213, 148, 140, 190, 131, 211, 132, 190, 121, 20, 31, 189, 174, 122, 79, 188, 117, 85, 145, 62, 220, 102, 153, 60, 173, 253, 164, 61, 143, 54, 104, 62, 230, 90, 149, 62, 145, 132, 45, 190, 6, 195, 153, 190, 170, 27, 173, 62, 218, 234, 71, 190, 149, 168, 70, 190, 4, 151, 174, 62, 3, 112, 159, 61, 219, 216, 138, 190, 181, 135, 250, 61, 19, 168, 71, 190, 65, 188, 5, 190, 104, 206, 226, 61, 119, 115, 190, 61, 96, 148, 21, 61, 36, 24, 74, 62, 207, 98, 15, 62, 36, 122, 12, 62, 185, 225, 121, 190, 16, 191, 213, 190, 190, 84, 158, 190, 10, 164, 58, 62, 227, 22, 170, 61, 224, 52, 41, 62, 226, 208, 58, 62, 116, 95, 56, 62, 128, 246, 76, 62, 253, 59, 185, 61, 237, 58, 16, 190, 33, 76, 5, 190, 239, 17, 141, 190, 93, 103, 39, 190, 224, 250, 88, 62, 97, 185, 145, 190, 143, 173, 62, 190, 145, 137, 148, 62, 69, 173, 211, 61, 223, 178, 17, 61, 197, 182, 135, 190, 233, 13, 140, 189, 40, 210, 252, 61, 42, 65, 30, 190, 158, 168, 148, 62, 67, 178, 76, 190, 99, 41, 137, 190, 185, 228, 45, 61, 13, 47, 22, 188, 97, 82, 166, 60, 215, 134, 170, 61, 249, 208, 239, 61, 131, 109, 118, 188, 183, 22, 171, 59, 249, 237, 75, 188, 79, 168, 240, 189, 193, 49, 27, 190, 193, 235, 56, 190, 68, 114, 117, 62, 22, 122, 89, 190, 224, 119, 187, 189, 165, 204, 104, 62, 170, 211, 182, 190, 157, 253, 68, 62, 57, 29, 48, 62, 245, 91, 154, 190, 48, 54, 251, 61, 194, 200, 86, 62, 127, 29, 115, 190, 198, 244, 167, 189, 108, 18, 151, 62, 143, 176, 187, 190, 35, 201, 223, 61, 240, 131, 88, 62, 145, 133, 219, 189, 112, 253, 228, 190, 177, 99, 122, 190, 216, 219, 62, 190, 133, 208, 42, 62, 212, 116, 54, 62, 225, 181, 212, 61, 89, 41, 131, 188, 14, 7, 12, 62, 202, 188, 34, 61, 210, 58, 20, 62, 215, 126, 154, 190, 227, 10, 93, 61, 88, 55, 52, 189, 218, 142, 183, 190, 0, 82, 144, 62, 32, 56, 1, 62, 179, 116, 203, 190, 161, 70, 131, 190, 229, 62, 130, 189, 110, 79, 108, 62, 205, 38, 8, 190, 63, 94, 13, 190, 160, 220, 124, 62, 35, 109, 166, 190, 93, 135, 90, 62, 122, 113, 189, 61, 154, 146, 57, 62, 99, 2, 237, 61, 123, 238, 57, 62, 175, 131, 84, 190, 85, 142, 183, 190, 223, 131, 189, 190, 59, 237, 241, 188, 167, 149, 243, 189, 75, 44, 128, 189, 118, 174, 117, 189, 16, 164, 27, 190, 69, 76, 253, 61, 40, 250, 130, 190, 88, 199, 61, 190, 153, 94, 209, 62, 55, 178, 171, 189, 100, 122, 149, 61, 214, 56, 103, 62, 72, 70, 237, 189, 67, 28, 61, 60, 171, 197, 192, 189, 203, 207, 93, 61, 184, 250, 12, 190, 84, 118, 214, 188, 79, 79, 214, 188, 241, 208, 150, 189, 227, 185, 183, 189, 107, 227, 236, 61, 194, 166, 42, 190, 9, 215, 155, 190, 148, 81, 120, 190, 170, 152, 150, 190, 206, 46, 161, 189, 20, 219, 20, 62, 162, 232, 116, 189, 131, 143, 83, 62, 150, 235, 18, 190, 192, 114, 131, 61, 157, 248, 231, 189, 187, 253, 17, 62, 173, 114, 179, 61, 33, 119, 79, 62, 134, 211, 57, 62, 19, 35, 169, 61, 174, 213, 30, 62, 7, 65, 45, 62, 176, 223, 142, 190, 118, 232, 36, 60, 200, 236, 184, 190, 21, 114, 116, 189, 105, 129, 224, 62, 57, 139, 130, 190, 58, 157, 170, 60, 6, 255, 66, 62, 244, 112, 178, 62, 63, 9, 153, 62, 6, 49, 165, 62, 134, 47, 38, 61, 157, 210, 96, 61, 161, 37, 149, 188, 131, 156, 155, 190, 170, 29, 191, 190, 63, 80, 181, 190, 214, 139, 143, 189, 122, 213, 234, 189, 179, 111, 247, 59, 178, 253, 149, 61, 67, 196, 183, 61, 90, 49, 11, 62, 127, 150, 219, 189, 231, 55, 250, 188, 153, 217, 212, 60, 143, 195, 78, 190, 236, 15, 220, 190, 5, 239, 209, 190, 11, 239, 9, 62, 221, 211, 169, 189, 235, 34, 41, 62, 117, 212, 150, 62, 230, 176, 223, 61, 178, 118, 63, 62, 249, 26, 89, 190, 19, 111, 176, 190, 168, 87, 176, 190, 8, 25, 73, 190, 0, 135, 81, 190, 145, 132, 146, 61, 15, 230, 128, 189, 18, 16, 93, 62, 237, 255, 3, 61, 170, 219, 246, 255, 4, 0, 0, 0, 8, 0, 0, 0, 255, 255, 255, 255, 0, 4, 0, 0, 190, 219, 246, 255, 4, 0, 0, 0, 4, 0, 0, 0, 51, 182, 214, 190, 206, 219, 246, 255, 4, 0, 0, 0, 0, 2, 0, 0, 31, 209, 26, 60, 230, 39, 103, 62, 58, 137, 115, 62, 194, 92, 2, 189, 83, 135, 17, 189, 218, 187, 13, 189, 128, 53, 192, 59, 81, 136, 222, 189, 150, 170, 69, 61, 102, 181, 209, 189, 154, 180, 58, 62, 119, 225, 173, 59, 52, 233, 137, 189, 221, 201, 90, 62, 69, 175, 145, 189, 140, 201, 204, 187, 160, 245, 178, 188, 237, 85, 47, 189, 254, 196, 53, 189, 20, 13, 89, 189, 9, 168, 82, 189, 220, 129, 62, 60, 90, 199, 152, 187, 249, 226, 112, 62, 84, 109, 190, 188, 22, 69, 45, 188, 95, 227, 7, 189, 25, 222, 42, 58, 65, 118, 13, 189, 35, 83, 18, 62, 85, 152, 220, 59, 179, 54, 121, 62, 175, 139, 136, 62, 1, 202, 29, 189, 201, 117, 96, 61, 55, 111, 212, 61, 68, 230, 15, 62, 161, 158, 17, 62, 68, 252, 31, 189, 195, 204, 92, 188, 62, 175, 114, 189, 108, 2, 5, 189, 228, 159, 219, 188, 7, 105, 6, 189, 19, 6, 126, 189, 39, 104, 65, 187, 212, 56, 66, 62, 123, 246, 136, 62, 234, 207, 58, 187, 190, 186, 63, 189, 121, 101, 22, 190, 115, 216, 167, 188, 217, 49, 206, 188, 49, 173, 29, 189, 214, 21, 38, 188, 169, 120, 144, 189, 185, 202, 150, 188, 39, 54, 36, 189, 126, 11, 174, 60, 198, 55, 75, 62, 42, 29, 163, 61, 174, 133, 84, 62, 77, 30, 142, 188, 146, 24, 227, 189, 198, 88, 31, 61, 216, 33, 9, 188, 205, 136, 25, 190, 198, 117, 183, 188, 199, 253, 50, 189, 230, 106, 221, 189, 163, 202, 254, 61, 196, 66, 100, 189, 66, 177, 50, 188, 237, 80, 249, 188, 117, 200, 87, 189, 241, 28, 112, 62, 34, 230, 103, 189, 36, 245, 213, 61, 96, 147, 60, 188, 34, 247, 85, 189, 150, 178, 251, 60, 213, 238, 89, 62, 36, 233, 39, 189, 119, 109, 101, 62, 185, 24, 128, 188, 250, 52, 6, 189, 62, 80, 96, 189, 173, 91, 89, 62, 127, 161, 101, 62, 24, 241, 142, 60, 18, 170, 246, 188, 140, 245, 78, 62, 213, 111, 71, 188, 68, 213, 195, 188, 36, 10, 250, 188, 160, 110, 146, 62, 183, 198, 98, 62, 84, 19, 232, 59, 168, 196, 71, 189, 123, 154, 243, 60, 89, 219, 208, 188, 123, 123, 141, 188, 147, 204, 17, 189, 184, 56, 109, 59, 200, 119, 114, 62, 68, 209, 60, 188, 136, 181, 154, 188, 241, 48, 24, 189, 242, 152, 135, 62, 0, 72, 208, 188, 40, 136, 102, 189, 166, 80, 17, 189, 28, 121, 185, 60, 232, 68, 41, 186, 69, 165, 62, 188, 117, 113, 6, 189, 140, 191, 149, 61, 17, 116, 35, 189, 75, 185, 26, 61, 240, 240, 162, 186, 172, 38, 212, 188, 56, 131, 202, 189, 120, 255, 45, 186, 39, 85, 10, 189, 136, 83, 60, 62, 1, 46, 4, 189, 43, 48, 105, 62, 246, 248, 53, 189, 218, 221, 246, 255, 4, 0, 0, 0, 0, 0, 8, 0, 78, 226, 156, 61, 149, 210, 66, 190, 25, 145, 136, 61, 119, 133, 111, 189, 231, 123, 240, 61, 113, 193, 87, 61, 204, 93, 92, 189, 66, 182, 124, 189, 50, 105, 2, 190, 247, 65, 213, 61, 221, 216, 61, 189, 182, 134, 68, 190, 112, 129, 198, 60, 227, 199, 233, 60, 115, 97, 254, 60, 237, 205, 25, 189, 92, 15, 227, 189, 153, 132, 242, 61, 144, 246, 104, 60, 121, 6, 175, 61, 147, 207, 186, 189, 210, 146, 181, 61, 238, 127, 191, 189, 70, 113, 221, 61, 139, 76, 226, 60, 118, 11, 134, 61, 90, 94, 220, 61, 144, 162, 206, 187, 217, 111, 44, 189, 153, 181, 131, 61, 50, 40, 24, 190, 144, 53, 81, 189, 64, 200, 101, 61, 1, 195, 145, 189, 14, 127, 119, 188, 214, 42, 248, 189, 212, 65, 57, 61, 116, 166, 205, 61, 102, 82, 49, 62, 218, 73, 3, 61, 5, 120, 173, 60, 110, 52, 140, 189, 137, 185, 71, 62, 196, 163, 212, 187, 160, 237, 249, 61, 242, 37, 49, 61, 116, 221, 148, 190, 179, 10, 13, 190, 189, 52, 44, 61, 115, 217, 254, 188, 34, 40, 0, 189, 199, 2, 30, 190, 4, 157, 95, 188, 183, 2, 87, 189, 210, 231, 223, 189, 156, 26, 168, 60, 213, 58, 209, 58, 122, 128, 25, 188, 88, 120, 12, 62, 133, 79, 131, 188, 128, 123, 35, 190, 87, 80, 69, 188, 140, 104, 14, 61, 154, 183, 249, 187, 106, 203, 232, 59, 214, 34, 57, 190, 255, 218, 22, 190, 248, 212, 198, 60, 135, 252, 26, 190, 242, 16, 61, 61, 30, 62, 153, 188, 121, 175, 227, 187, 81, 59, 11, 61, 91, 193, 182, 61, 51, 46, 13, 61, 232, 183, 57, 190, 188, 111, 98, 189, 221, 217, 45, 188, 194, 11, 231, 187, 157, 190, 51, 187, 80, 23, 75, 61, 21, 243, 24, 189, 48, 9, 128, 59, 92, 229, 149, 58, 57, 118, 163, 61, 175, 110, 40, 190, 197, 88, 16, 62, 93, 154, 190, 60, 55, 231, 17, 61, 147, 7, 104, 189, 7, 184, 139, 60, 116, 225, 89, 61, 193, 230, 172, 188, 7, 7, 6, 62, 10, 68, 26, 190, 241, 74, 239, 189, 188, 87, 103, 61, 45, 134, 208, 188, 178, 172, 42, 60, 34, 156, 187, 189, 102, 141, 67, 62, 37, 133, 27, 190, 3, 31, 153, 61, 59, 23, 100, 62, 208, 186, 6, 61, 11, 233, 38, 189, 181, 230, 143, 62, 146, 226, 40, 60, 39, 131, 89, 61, 132, 199, 97, 61, 43, 230, 3, 190, 50, 96, 62, 189, 48, 93, 138, 61, 123, 246, 199, 189, 46, 17, 206, 188, 233, 160, 70, 190, 247, 55, 171, 189, 156, 206, 159, 188, 135, 195, 79, 190, 227, 251, 73, 189, 163, 18, 180, 60, 64, 202, 5, 61, 22, 83, 7, 62, 185, 141, 252, 60, 140, 96, 247, 190, 192, 244, 3, 187, 64, 125, 188, 186, 41, 88, 57, 189, 61, 219, 245, 187, 112, 245, 209, 189, 195, 62, 171, 188, 16, 146, 67, 61, 135, 123, 80, 62, 225, 12, 51, 190, 192, 10, 102, 61, 249, 129, 9, 61, 76, 233, 47, 60, 245, 158, 174, 62, 61, 196, 47, 190, 7, 187, 62, 62, 252, 240, 139, 60, 28, 36, 115, 189, 145, 46, 191, 189, 28, 73, 255, 187, 210, 23, 249, 61, 78, 132, 180, 189, 42, 22, 65, 61, 212, 36, 171, 188, 107, 65, 211, 60, 159, 216, 116, 62, 14, 28, 76, 190, 158, 230, 184, 188, 149, 68, 126, 61, 235, 200, 76, 62, 129, 161, 241, 189, 58, 59, 243, 188, 225, 149, 67, 189, 81, 44, 169, 62, 113, 231, 159, 62, 135, 6, 116, 189, 18, 140, 199, 60, 108, 110, 154, 60, 9, 37, 223, 187, 97, 217, 174, 189, 8, 44, 4, 62, 110, 187, 39, 189, 149, 18, 171, 188, 74, 188, 164, 61, 43, 31, 139, 61, 184, 112, 230, 60, 92, 165, 137, 188, 119, 5, 72, 61, 50, 239, 157, 61, 158, 73, 3, 61, 99, 212, 172, 60, 66, 58, 0, 190, 0, 191, 227, 187, 171, 243, 183, 60, 215, 98, 82, 62, 120, 43, 254, 57, 89, 171, 161, 189, 255, 176, 129, 189, 215, 79, 222, 188, 224, 234, 16, 60, 23, 8, 250, 61, 201, 94, 44, 189, 42, 127, 129, 61, 10, 4, 191, 61, 120, 199, 10, 190, 211, 113, 12, 190, 92, 27, 135, 188, 205, 135, 10, 189, 83, 224, 121, 62, 119, 39, 46, 189, 253, 180, 151, 61, 44, 115, 200, 60, 167, 243, 20, 189, 238, 106, 120, 189, 108, 156, 240, 59, 38, 200, 26, 62, 167, 149, 226, 189, 9, 125, 109, 190, 248, 196, 137, 190, 230, 177, 26, 62, 160, 207, 246, 60, 233, 184, 137, 190, 69, 161, 115, 61, 221, 77, 132, 61, 153, 64, 51, 61, 100, 240, 229, 59, 40, 133, 72, 60, 151, 237, 100, 190, 68, 218, 3, 62, 250, 14, 96, 62, 16, 226, 220, 61, 64, 176, 248, 60, 91, 251, 71, 189, 221, 87, 129, 188, 254, 93, 197, 189, 55, 0, 147, 189, 252, 75, 119, 190, 223, 132, 174, 189, 199, 216, 13, 62, 166, 119, 197, 60, 46, 207, 175, 188, 200, 0, 175, 60, 52, 252, 74, 187, 38, 209, 9, 189, 48, 8, 92, 190, 239, 136, 41, 189, 182, 31, 29, 61, 122, 204, 228, 60, 227, 108, 186, 61, 160, 214, 128, 61, 23, 233, 12, 190, 188, 3, 110, 59, 112, 70, 181, 61, 206, 16, 134, 189, 87, 228, 2, 62, 247, 6, 61, 190, 189, 61, 157, 60, 170, 244, 161, 61, 107, 101, 252, 61, 195, 161, 54, 188, 212, 165, 0, 189, 80, 58, 179, 59, 23, 157, 32, 62, 45, 203, 104, 189, 153, 97, 119, 190, 252, 229, 12, 59, 223, 211, 78, 190, 226, 27, 113, 61, 0, 31, 60, 62, 104, 83, 62, 189, 0, 39, 251, 187, 199, 13, 90, 61, 48, 44, 138, 188, 237, 248, 96, 190, 93, 37, 243, 61, 32, 72, 89, 189, 77, 243, 35, 62, 33, 84, 254, 61, 194, 62, 61, 59, 39, 163, 38, 190, 47, 172, 174, 60, 44, 43, 128, 60, 192, 186, 175, 188, 142, 81, 101, 188, 0, 78, 89, 61, 246, 38, 34, 190, 170, 190, 127, 189, 233, 161, 18, 189, 246, 67, 132, 61, 182, 217, 158, 61, 146, 199, 161, 188, 229, 193, 163, 59, 165, 23, 149, 190, 118, 96, 118, 189, 198, 73, 143, 190, 253, 253, 77, 190, 26, 113, 47, 189, 2, 14, 152, 188, 161, 208, 144, 188, 192, 208, 156, 59, 102, 125, 84, 189, 118, 31, 42, 61, 44, 101, 245, 189, 64, 63, 15, 188, 217, 55, 91, 189, 78, 163, 228, 189, 148, 49, 44, 61, 132, 173, 140, 189, 158, 138, 159, 62, 200, 81, 18, 62, 16, 53, 4, 190, 131, 142, 190, 190, 145, 135, 142, 60, 40, 59, 133, 61, 124, 111, 241, 189, 90, 14, 98, 60, 104, 244, 23, 62, 9, 168, 34, 189, 75, 195, 241, 189, 214, 93, 175, 189, 233, 114, 138, 61, 132, 133, 163, 190, 184, 140, 221, 189, 190, 13, 186, 61, 27, 55, 90, 60, 198, 129, 147, 188, 165, 199, 143, 190, 254, 115, 59, 189, 131, 57, 71, 62, 209, 187, 156, 189, 209, 202, 30, 61, 73, 162, 130, 189, 184, 151, 44, 190, 209, 201, 53, 190, 210, 88, 174, 61, 13, 93, 118, 61, 56, 218, 132, 190, 16, 172, 82, 189, 129, 251, 130, 61, 230, 243, 31, 189, 203, 229, 34, 189, 131, 1, 107, 62, 93, 112, 142, 61, 121, 111, 53, 190, 225, 83, 202, 189, 138, 204, 75, 190, 135, 106, 155, 62, 28, 216, 141, 190, 218, 28, 253, 188, 154, 146, 30, 188, 0, 28, 60, 61, 128, 232, 199, 188, 199, 215, 48, 188, 143, 222, 117, 187, 60, 46, 65, 189, 250, 189, 144, 62, 113, 228, 66, 190, 219, 20, 91, 190, 68, 87, 45, 59, 179, 4, 180, 60, 60, 163, 37, 188, 247, 33, 191, 61, 197, 42, 20, 188, 38, 178, 252, 188, 135, 211, 51, 62, 101, 126, 87, 190, 135, 120, 175, 190, 185, 39, 64, 189, 101, 176, 200, 189, 224, 136, 44, 189, 157, 179, 159, 60, 181, 59, 227, 188, 206, 135, 79, 62, 9, 202, 233, 61, 31, 26, 138, 190, 198, 213, 109, 61, 141, 101, 37, 61, 76, 145, 55, 61, 174, 254, 35, 62, 145, 18, 196, 59, 92, 6, 66, 62, 206, 174, 130, 189, 88, 227, 96, 190, 99, 37, 189, 62, 213, 163, 49, 60, 1, 64, 6, 190, 41, 64, 20, 61, 202, 73, 159, 188, 249, 204, 131, 189, 126, 29, 220, 188, 182, 1, 120, 190, 122, 61, 186, 188, 251, 5, 10, 190, 228, 183, 244, 60, 97, 91, 4, 61, 62, 89, 156, 189, 86, 14, 84, 190, 201, 244, 209, 189, 80, 225, 204, 59, 178, 111, 41, 61, 244, 5, 249, 61, 175, 135, 184, 189, 37, 89, 96, 61, 180, 244, 89, 61, 22, 137, 84, 62, 232, 65, 148, 62, 133, 161, 17, 61, 124, 54, 136, 59, 217, 75, 65, 189, 40, 5, 80, 62, 76, 203, 24, 62, 128, 172, 87, 61, 104, 77, 36, 188, 74, 2, 53, 190, 148, 240, 48, 189, 214, 118, 112, 189, 103, 194, 250, 189, 248, 197, 44, 189, 198, 76, 4, 189, 105, 5, 134, 62, 115, 193, 12, 189, 239, 68, 31, 62, 117, 83, 148, 188, 16, 174, 184, 189, 20, 78, 154, 61, 255, 152, 98, 61, 156, 51, 162, 189, 216, 241, 103, 61, 102, 68, 0, 62, 63, 115, 189, 62, 10, 78, 83, 62, 139, 112, 48, 189, 39, 8, 199, 189, 119, 44, 132, 189, 181, 35, 193, 188, 96, 189, 141, 60, 184, 97, 44, 185, 154, 20, 185, 189, 1, 22, 50, 190, 171, 93, 141, 62, 88, 146, 220, 61, 175, 110, 14, 189, 216, 27, 18, 190, 114, 1, 199, 188, 38, 248, 157, 189, 216, 145, 211, 60, 34, 92, 161, 61, 22, 59, 96, 62, 239, 115, 136, 60, 158, 143, 246, 60, 34, 98, 96, 62, 231, 232, 60, 190, 58, 157, 143, 189, 46, 140, 61, 61, 22, 145, 103, 190, 216, 116, 185, 188, 172, 134, 37, 62, 218, 187, 101, 189, 88, 22, 150, 190, 13, 196, 202, 189, 217, 24, 1, 62, 140, 73, 209, 189, 148, 58, 41, 61, 74, 238, 86, 189, 219, 252, 152, 62, 35, 38, 253, 59, 236, 102, 24, 189, 202, 49, 12, 189, 175, 123, 67, 62, 141, 97, 66, 62, 141, 29, 78, 189, 66, 124, 172, 62, 237, 1, 82, 189, 198, 232, 200, 189, 51, 199, 177, 189, 41, 96, 50, 62, 96, 152, 141, 61, 84, 29, 248, 61, 181, 247, 126, 59, 174, 61, 104, 61, 124, 54, 137, 187, 10, 190, 75, 189, 248, 184, 1, 189, 121, 44, 150, 189, 85, 246, 14, 62, 100, 24, 5, 60, 194, 63, 32, 188, 136, 165, 46, 189, 192, 165, 85, 61, 66, 109, 172, 60, 140, 118, 12, 190, 196, 218, 110, 61, 140, 249, 113, 190, 140, 84, 21, 61, 43, 30, 120, 61, 225, 95, 66, 61, 155, 193, 225, 60, 6, 232, 146, 189, 232, 106, 77, 61, 191, 158, 120, 188, 209, 198, 80, 62, 8, 192, 38, 61, 182, 194, 156, 189, 69, 94, 155, 189, 147, 112, 158, 61, 112, 194, 153, 60, 86, 200, 83, 62, 137, 168, 87, 189, 216, 102, 157, 188, 22, 125, 203, 188, 78, 62, 40, 189, 40, 5, 131, 189, 0, 103, 131, 189, 93, 220, 11, 60, 199, 92, 156, 189, 158, 229, 166, 59, 250, 244, 166, 60, 208, 195, 98, 189, 33, 227, 134, 60, 162, 60, 14, 189, 244, 253, 176, 189, 168, 180, 132, 60, 156, 178, 133, 190, 39, 95, 154, 189, 233, 202, 229, 189, 136, 148, 172, 189, 144, 54, 229, 188, 248, 186, 110, 60, 253, 84, 246, 60, 88, 134, 43, 190, 231, 109, 221, 60, 216, 110, 171, 188, 47, 95, 162, 61, 168, 129, 67, 189, 49, 205, 33, 188, 31, 190, 57, 190, 88, 209, 250, 188, 137, 177, 50, 190, 105, 147, 177, 189, 81, 202, 68, 189, 49, 202, 244, 188, 170, 20, 1, 60, 87, 203, 63, 60, 157, 139, 169, 189, 151, 107, 117, 189, 230, 13, 234, 60, 64, 9, 45, 59, 133, 191, 135, 189, 234, 55, 133, 60, 236, 51, 157, 189, 7, 204, 45, 190, 251, 130, 225, 189, 161, 121, 58, 189, 217, 59, 180, 61, 56, 132, 50, 62, 39, 74, 25, 189, 24, 47, 18, 189, 49, 76, 212, 60, 83, 116, 187, 61, 17, 214, 76, 60, 158, 236, 81, 61, 158, 217, 2, 189, 52, 12, 176, 62, 233, 102, 97, 189, 33, 62, 35, 61, 50, 2, 20, 190, 123, 108, 22, 62, 75, 75, 101, 189, 84, 89, 219, 60, 36, 1, 197, 60, 148, 11, 128, 190, 18, 183, 146, 189, 243, 53, 176, 62, 242, 239, 75, 61, 25, 132, 233, 61, 234, 181, 29, 190, 192, 70, 135, 189, 198, 44, 165, 189, 52, 239, 94, 62, 93, 70, 26, 62, 177, 71, 17, 190, 123, 44, 10, 189, 150, 236, 66, 189, 33, 136, 251, 188, 2, 105, 13, 62, 244, 35, 106, 61, 52, 213, 53, 62, 247, 189, 34, 61, 199, 244, 230, 188, 70, 157, 138, 189, 227, 162, 163, 60, 181, 188, 35, 186, 237, 191, 227, 61, 220, 101, 10, 190, 179, 68, 108, 190, 0, 64, 23, 59, 170, 208, 185, 189, 125, 247, 38, 189, 229, 105, 227, 188, 38, 135, 138, 62, 17, 48, 156, 189, 194, 239, 45, 61, 92, 242, 78, 62, 222, 236, 62, 62, 182, 226, 132, 61, 148, 112, 163, 189, 248, 220, 73, 189, 132, 68, 54, 60, 137, 190, 66, 190, 245, 129, 77, 187, 63, 183, 87, 189, 66, 161, 92, 62, 254, 41, 234, 60, 128, 2, 26, 62, 209, 247, 2, 190, 82, 45, 113, 188, 106, 86, 238, 188, 185, 202, 1, 190, 1, 28, 80, 188, 48, 210, 200, 60, 4, 50, 153, 61, 12, 86, 85, 189, 30, 28, 192, 189, 75, 251, 116, 61, 10, 17, 129, 59, 115, 177, 1, 61, 39, 74, 143, 190, 215, 121, 2, 190, 61, 106, 119, 190, 8, 221, 219, 190, 137, 64, 138, 189, 213, 139, 68, 61, 207, 199, 39, 61, 200, 187, 20, 189, 55, 42, 112, 190, 89, 51, 202, 60, 237, 131, 149, 190, 207, 127, 14, 189, 19, 74, 129, 189, 127, 48, 71, 61, 143, 220, 118, 189, 85, 77, 199, 190, 121, 26, 61, 62, 75, 167, 29, 190, 210, 187, 197, 189, 100, 136, 13, 61, 238, 240, 10, 191, 98, 238, 161, 60, 177, 53, 79, 61, 46, 45, 164, 59, 211, 29, 54, 61, 92, 233, 149, 61, 1, 140, 128, 189, 41, 115, 95, 190, 220, 58, 34, 61, 72, 47, 7, 189, 109, 159, 118, 190, 2, 139, 26, 189, 140, 154, 143, 190, 128, 235, 111, 58, 252, 161, 166, 62, 37, 192, 224, 189, 138, 164, 67, 189, 31, 19, 37, 190, 242, 172, 34, 189, 130, 162, 69, 62, 81, 6, 162, 62, 17, 217, 163, 62, 130, 6, 74, 61, 61, 123, 46, 190, 156, 154, 151, 189, 33, 144, 51, 189, 166, 134, 175, 189, 187, 247, 64, 189, 18, 45, 79, 61, 114, 41, 51, 62, 207, 230, 137, 190, 56, 179, 29, 190, 112, 98, 101, 60, 210, 219, 194, 60, 159, 37, 88, 61, 182, 79, 190, 190, 190, 139, 200, 60, 118, 62, 126, 188, 201, 2, 165, 62, 102, 232, 230, 61, 40, 100, 15, 61, 3, 14, 188, 189, 41, 187, 179, 60, 151, 155, 18, 61, 153, 50, 23, 191, 15, 143, 79, 187, 218, 31, 178, 190, 29, 181, 251, 190, 118, 5, 52, 189, 66, 100, 237, 61, 27, 146, 21, 61, 218, 67, 18, 189, 79, 1, 181, 189, 8, 132, 170, 60, 228, 107, 22, 191, 241, 115, 205, 60, 92, 110, 245, 190, 46, 118, 181, 62, 75, 63, 89, 189, 117, 116, 147, 190, 125, 200, 142, 190, 14, 188, 160, 190, 165, 117, 10, 189, 65, 202, 141, 189, 44, 29, 36, 191, 61, 102, 107, 189, 247, 126, 6, 62, 181, 220, 180, 188, 216, 105, 19, 61, 142, 213, 48, 189, 83, 35, 151, 190, 105, 218, 97, 60, 36, 62, 103, 61, 245, 119, 30, 189, 33, 130, 61, 62, 173, 210, 23, 189, 174, 125, 57, 61, 118, 16, 84, 60, 19, 229, 12, 62, 85, 231, 213, 61, 240, 98, 75, 61, 44, 179, 11, 188, 18, 177, 115, 189, 163, 43, 202, 60, 181, 34, 84, 62, 49, 152, 26, 62, 164, 242, 129, 60, 154, 84, 22, 61, 60, 153, 194, 60, 44, 44, 174, 188, 234, 11, 199, 58, 181, 254, 74, 188, 104, 80, 243, 188, 63, 255, 166, 61, 39, 225, 48, 189, 214, 60, 40, 190, 99, 81, 145, 188, 182, 74, 50, 190, 28, 107, 202, 60, 5, 168, 164, 189, 238, 78, 149, 189, 52, 195, 140, 60, 97, 139, 144, 188, 5, 35, 229, 188, 69, 242, 11, 188, 124, 252, 20, 189, 239, 12, 183, 61, 175, 40, 155, 189, 202, 89, 113, 190, 185, 240, 71, 188, 241, 140, 116, 189, 165, 54, 141, 189, 42, 184, 69, 61, 177, 77, 184, 61, 58, 249, 243, 61, 78, 70, 145, 189, 222, 94, 99, 190, 180, 64, 119, 189, 111, 111, 162, 190, 145, 146, 15, 61, 37, 159, 2, 62, 55, 19, 72, 61, 249, 101, 115, 188, 97, 166, 106, 188, 119, 157, 135, 190, 205, 18, 78, 61, 117, 26, 21, 60, 94, 228, 138, 60, 41, 31, 208, 189, 188, 234, 132, 61, 157, 146, 178, 189, 84, 5, 135, 189, 137, 133, 222, 189, 150, 19, 91, 61, 140, 161, 235, 189, 52, 204, 142, 61, 15, 215, 107, 189, 132, 35, 26, 61, 164, 21, 0, 59, 16, 212, 88, 61, 147, 121, 51, 61, 10, 228, 134, 188, 211, 45, 23, 190, 91, 193, 100, 189, 249, 141, 14, 59, 16, 72, 213, 189, 196, 241, 146, 188, 4, 199, 137, 61, 231, 142, 8, 190, 90, 43, 179, 189, 32, 230, 172, 187, 162, 28, 2, 62, 46, 111, 90, 61, 164, 97, 28, 189, 195, 216, 95, 62, 54, 201, 183, 189, 200, 193, 191, 188, 184, 34, 191, 188, 88, 196, 135, 189, 33, 198, 137, 61, 48, 176, 244, 60, 119, 255, 4, 62, 110, 80, 255, 188, 85, 118, 71, 190, 255, 26, 173, 61, 80, 106, 254, 59, 225, 14, 133, 62, 49, 207, 76, 62, 170, 12, 215, 60, 181, 166, 144, 187, 108, 117, 153, 188, 47, 109, 16, 60, 89, 247, 160, 60, 38, 129, 142, 61, 174, 3, 8, 60, 169, 4, 171, 62, 1, 101, 146, 61, 11, 251, 159, 61, 35, 73, 149, 61, 84, 139, 87, 189, 189, 252, 190, 61, 169, 6, 34, 61, 91, 223, 19, 62, 22, 105, 60, 61, 174, 56, 151, 190, 87, 86, 149, 62, 184, 144, 91, 189, 88, 201, 192, 61, 95, 98, 172, 61, 33, 254, 21, 61, 215, 5, 134, 189, 205, 49, 135, 189, 182, 135, 151, 190, 198, 118, 3, 189, 49, 146, 107, 187, 69, 114, 37, 189, 122, 28, 100, 62, 67, 68, 174, 61, 62, 134, 53, 62, 228, 91, 64, 61, 151, 248, 141, 61, 200, 19, 11, 59, 53, 171, 109, 62, 232, 113, 134, 61, 253, 206, 117, 61, 0, 29, 159, 188, 105, 129, 124, 61, 75, 224, 85, 60, 232, 226, 181, 187, 229, 87, 88, 62, 213, 164, 226, 188, 243, 122, 59, 189, 155, 35, 198, 189, 173, 13, 48, 62, 216, 110, 9, 61, 129, 224, 147, 61, 41, 75, 58, 189, 236, 34, 202, 188, 26, 52, 180, 61, 182, 152, 203, 189, 104, 94, 97, 61, 144, 212, 68, 189, 229, 6, 35, 62, 87, 206, 140, 188, 124, 254, 141, 61, 137, 209, 98, 62, 25, 54, 109, 60, 166, 199, 174, 190, 12, 67, 128, 61, 18, 197, 15, 189, 220, 181, 21, 62, 82, 185, 128, 189, 181, 202, 193, 61, 169, 6, 107, 60, 21, 47, 34, 61, 150, 148, 130, 188, 192, 209, 127, 189, 149, 85, 186, 60, 175, 205, 196, 189, 227, 198, 209, 188, 195, 254, 156, 189, 248, 235, 147, 189, 24, 82, 42, 188, 29, 33, 9, 189, 107, 165, 26, 62, 126, 21, 33, 60, 40, 169, 252, 189, 12, 210, 131, 188, 80, 43, 188, 61, 27, 119, 254, 61, 250, 75, 145, 61, 136, 221, 78, 189, 94, 155, 85, 189, 68, 17, 157, 189, 93, 212, 102, 189, 24, 68, 160, 188, 16, 161, 152, 190, 145, 203, 98, 59, 241, 230, 103, 189, 246, 97, 179, 60, 205, 204, 55, 61, 23, 175, 141, 61, 100, 87, 197, 61, 186, 19, 98, 62, 234, 82, 18, 189, 117, 65, 223, 60, 211, 66, 20, 61, 202, 54, 9, 62, 231, 148, 123, 62, 0, 55, 32, 59, 117, 108, 169, 61, 252, 54, 254, 188, 47, 98, 146, 189, 93, 152, 19, 190, 5, 47, 228, 188, 235, 73, 70, 190, 254, 215, 22, 62, 72, 32, 207, 189, 106, 58, 30, 189, 79, 88, 102, 62, 46, 219, 57, 189, 109, 249, 117, 189, 103, 118, 230, 61, 106, 161, 60, 189, 11, 174, 11, 189, 178, 115, 42, 61, 156, 137, 162, 61, 49, 24, 46, 190, 34, 172, 193, 61, 218, 102, 238, 61, 255, 210, 239, 188, 250, 10, 30, 191, 16, 50, 119, 62, 124, 98, 166, 60, 198, 225, 32, 62, 233, 195, 135, 190, 160, 193, 67, 190, 17, 135, 77, 189, 196, 132, 42, 58, 249, 40, 85, 189, 113, 100, 80, 190, 26, 99, 125, 189, 211, 130, 75, 189, 206, 203, 95, 189, 40, 188, 169, 190, 102, 65, 133, 61, 69, 151, 141, 61, 164, 172, 228, 60, 204, 33, 193, 61, 69, 196, 38, 61, 135, 226, 114, 190, 200, 8, 23, 60, 133, 109, 172, 190, 237, 108, 45, 62, 44, 66, 47, 61, 237, 138, 53, 190, 208, 81, 128, 190, 80, 87, 230, 189, 40, 95, 36, 189, 36, 139, 145, 61, 201, 123, 44, 191, 233, 200, 108, 189, 183, 11, 71, 190, 75, 226, 139, 188, 93, 46, 27, 61, 2, 111, 93, 61, 152, 59, 157, 190, 169, 128, 158, 62, 84, 50, 83, 188, 19, 215, 158, 61, 147, 63, 138, 60, 55, 163, 62, 62, 140, 229, 83, 62, 29, 32, 46, 189, 39, 60, 179, 189, 210, 243, 178, 61, 248, 38, 56, 189, 124, 147, 250, 61, 248, 99, 153, 61, 191, 85, 27, 61, 225, 1, 3, 62, 58, 166, 116, 190, 100, 121, 172, 188, 177, 218, 248, 60, 208, 131, 77, 60, 244, 72, 76, 189, 208, 208, 116, 62, 223, 111, 47, 60, 48, 10, 21, 60, 10, 20, 203, 61, 241, 142, 37, 61, 163, 162, 127, 188, 203, 223, 251, 60, 232, 234, 121, 62, 55, 119, 218, 188, 183, 153, 203, 190, 33, 51, 133, 62, 201, 66, 115, 189, 155, 150, 154, 62, 29, 98, 57, 62, 39, 124, 97, 190, 239, 170, 24, 62, 130, 236, 4, 189, 6, 91, 195, 60, 97, 35, 55, 62, 21, 83, 120, 61, 132, 208, 137, 62, 26, 135, 96, 62, 102, 198, 3, 62, 8, 189, 143, 190, 86, 124, 139, 61, 176, 218, 224, 187, 183, 84, 127, 189, 59, 134, 120, 61, 16, 86, 4, 190, 168, 24, 118, 61, 2, 14, 70, 58, 1, 155, 74, 62, 175, 222, 102, 188, 160, 191, 151, 186, 52, 61, 181, 190, 110, 236, 33, 189, 166, 28, 184, 189, 76, 182, 140, 61, 255, 80, 133, 190, 83, 121, 136, 60, 169, 236, 33, 189, 74, 18, 183, 188, 64, 184, 132, 190, 88, 62, 135, 61, 61, 179, 96, 190, 159, 89, 181, 189, 100, 148, 144, 189, 104, 118, 176, 61, 85, 109, 105, 189, 112, 24, 142, 189, 145, 24, 25, 190, 32, 108, 12, 188, 106, 53, 134, 189, 10, 79, 0, 62, 180, 51, 153, 189, 209, 40, 107, 62, 36, 87, 17, 61, 225, 107, 29, 190, 79, 108, 164, 189, 25, 148, 2, 61, 76, 43, 236, 60, 183, 93, 71, 62, 147, 71, 200, 61, 206, 45, 156, 61, 75, 3, 243, 61, 52, 193, 140, 61, 180, 253, 185, 188, 91, 119, 18, 189, 190, 130, 164, 62, 234, 158, 255, 187, 24, 104, 231, 61, 136, 10, 142, 190, 81, 48, 80, 189, 61, 140, 180, 60, 223, 77, 197, 189, 87, 59, 97, 189, 248, 148, 72, 190, 153, 173, 186, 189, 63, 235, 10, 61, 20, 213, 66, 61, 148, 194, 234, 60, 244, 153, 80, 61, 239, 56, 176, 188, 131, 71, 87, 61, 151, 148, 162, 61, 100, 137, 17, 62, 74, 74, 45, 190, 182, 130, 200, 61, 41, 165, 115, 60, 144, 174, 246, 187, 162, 97, 166, 189, 83, 153, 26, 61, 92, 95, 224, 188, 192, 113, 169, 59, 89, 46, 135, 62, 50, 105, 197, 189, 88, 100, 193, 60, 97, 217, 152, 60, 64, 145, 235, 61, 64, 18, 213, 58, 137, 135, 7, 189, 100, 251, 38, 61, 207, 2, 147, 188, 246, 2, 56, 189, 205, 155, 237, 189, 12, 38, 239, 61, 67, 49, 75, 189, 154, 201, 101, 189, 183, 96, 252, 188, 118, 147, 198, 189, 242, 205, 60, 61, 16, 167, 156, 186, 33, 24, 38, 60, 131, 244, 39, 62, 233, 250, 117, 62, 176, 28, 130, 61, 179, 69, 190, 61, 98, 210, 180, 188, 65, 91, 61, 189, 5, 25, 6, 62, 236, 29, 230, 59, 72, 139, 82, 190, 97, 135, 166, 189, 32, 87, 62, 61, 218, 172, 56, 61, 140, 96, 205, 61, 169, 113, 178, 60, 90, 52, 137, 60, 210, 215, 243, 61, 249, 23, 187, 60, 24, 219, 209, 188, 85, 196, 17, 61, 94, 49, 213, 61, 219, 203, 104, 60, 221, 167, 72, 60, 27, 151, 240, 189, 40, 80, 196, 188, 81, 210, 102, 188, 12, 60, 129, 61, 160, 219, 92, 188, 244, 142, 165, 190, 226, 106, 156, 190, 71, 6, 28, 62, 162, 4, 156, 61, 103, 158, 136, 61, 212, 170, 75, 188, 52, 144, 139, 187, 100, 4, 129, 60, 112, 58, 166, 61, 64, 199, 244, 188, 76, 23, 134, 189, 30, 227, 88, 190, 27, 159, 218, 187, 204, 154, 252, 60, 15, 253, 255, 60, 69, 231, 135, 189, 228, 46, 24, 190, 30, 100, 49, 189, 177, 23, 39, 61, 218, 40, 4, 190, 24, 216, 94, 61, 251, 234, 181, 61, 65, 87, 132, 61, 133, 223, 155, 61, 94, 179, 209, 60, 124, 64, 139, 60, 214, 150, 48, 188, 196, 30, 104, 61, 67, 171, 225, 60, 187, 50, 118, 61, 60, 13, 82, 189, 26, 102, 195, 189, 20, 145, 53, 61, 53, 105, 163, 187, 222, 12, 55, 61, 217, 146, 49, 61, 86, 52, 19, 61, 4, 156, 71, 62, 205, 6, 140, 61, 240, 96, 104, 60, 16, 153, 5, 190, 46, 150, 194, 60, 72, 178, 86, 61, 55, 148, 62, 190, 131, 101, 50, 61, 174, 175, 166, 189, 186, 243, 163, 189, 201, 188, 148, 61, 188, 116, 98, 61, 139, 228, 181, 189, 239, 182, 207, 186, 242, 99, 49, 188, 167, 71, 217, 60, 238, 240, 15, 189, 68, 63, 147, 60, 75, 219, 107, 60, 207, 30, 146, 60, 92, 93, 22, 190, 191, 16, 213, 61, 237, 125, 223, 60, 22, 124, 183, 188, 78, 194, 12, 190, 112, 151, 243, 61, 96, 62, 56, 187, 10, 79, 199, 189, 201, 35, 110, 61, 48, 216, 145, 61, 173, 158, 252, 188, 175, 194, 13, 59, 66, 40, 185, 61, 87, 114, 0, 62, 32, 51, 57, 61, 63, 42, 207, 189, 142, 113, 48, 189, 222, 187, 96, 190, 24, 209, 209, 61, 64, 26, 61, 189, 208, 7, 139, 189, 133, 70, 75, 62, 229, 51, 105, 60, 18, 112, 228, 187, 0, 183, 92, 186, 117, 2, 93, 61, 172, 70, 130, 190, 173, 92, 1, 60, 144, 16, 4, 61, 59, 64, 44, 190, 56, 206, 47, 189, 159, 33, 1, 188, 164, 38, 129, 60, 147, 123, 47, 61, 96, 158, 102, 187, 57, 54, 214, 61, 33, 133, 24, 61, 191, 148, 7, 62, 42, 231, 42, 188, 254, 254, 163, 61, 54, 127, 118, 189, 30, 40, 89, 189, 11, 140, 81, 61, 53, 94, 54, 61, 196, 116, 20, 60, 178, 213, 193, 189, 242, 9, 147, 189, 78, 83, 24, 62, 118, 142, 115, 60, 142, 189, 188, 188, 223, 60, 10, 190, 255, 103, 189, 61, 110, 7, 53, 62, 188, 83, 33, 189, 245, 62, 212, 188, 226, 109, 210, 188, 252, 72, 195, 188, 233, 219, 240, 61, 121, 100, 112, 61, 137, 116, 243, 61, 246, 63, 83, 61, 191, 112, 23, 189, 22, 167, 189, 189, 141, 161, 194, 189, 219, 244, 93, 190, 7, 137, 246, 189, 92, 51, 40, 189, 129, 161, 48, 61, 61, 196, 80, 62, 211, 69, 151, 189, 44, 151, 101, 61, 170, 238, 120, 189, 156, 103, 62, 62, 216, 247, 184, 61, 134, 126, 55, 61, 148, 80, 85, 189, 17, 129, 104, 189, 106, 0, 7, 62, 11, 229, 122, 61, 22, 93, 61, 190, 30, 52, 251, 61, 164, 36, 224, 190, 192, 2, 106, 62, 162, 44, 55, 61, 130, 177, 13, 189, 235, 18, 222, 59, 245, 247, 233, 60, 79, 178, 87, 62, 64, 9, 163, 187, 80, 27, 74, 189, 38, 172, 208, 189, 239, 189, 50, 61, 58, 23, 161, 61, 216, 51, 126, 60, 191, 40, 185, 61, 176, 229, 189, 59, 131, 47, 138, 189, 24, 244, 36, 62, 148, 239, 216, 60, 92, 51, 187, 62, 195, 181, 255, 60, 29, 26, 88, 62, 104, 70, 160, 188, 178, 42, 93, 62, 3, 14, 197, 188, 208, 200, 177, 60, 40, 45, 228, 188, 33, 139, 82, 189, 108, 6, 198, 188, 38, 113, 135, 189, 242, 212, 147, 188, 87, 72, 249, 189, 130, 19, 28, 60, 44, 143, 120, 61, 83, 82, 41, 60, 156, 2, 193, 189, 165, 24, 22, 190, 68, 177, 251, 189, 166, 160, 174, 189, 40, 52, 14, 60, 140, 234, 7, 189, 65, 131, 206, 61, 227, 193, 0, 61, 91, 225, 193, 61, 127, 90, 179, 61, 176, 108, 94, 61, 54, 36, 201, 189, 239, 64, 95, 61, 174, 192, 22, 189, 120, 152, 116, 62, 161, 174, 72, 190, 0, 71, 12, 61, 211, 139, 213, 62, 233, 137, 1, 190, 240, 125, 143, 189, 47, 81, 13, 189, 24, 242, 149, 189, 204, 150, 155, 57, 77, 81, 182, 187, 175, 155, 202, 61, 211, 120, 61, 61, 100, 14, 129, 187, 234, 193, 164, 60, 253, 195, 220, 61, 117, 207, 170, 188, 116, 59, 251, 189, 158, 34, 136, 62, 9, 117, 118, 60, 144, 25, 18, 61, 94, 195, 17, 62, 135, 153, 26, 189, 137, 195, 194, 61, 32, 177, 46, 60, 217, 149, 137, 62, 29, 106, 52, 190, 171, 195, 40, 59, 114, 152, 167, 187, 18, 2, 6, 62, 113, 195, 107, 62, 10, 26, 135, 188, 34, 155, 137, 188, 102, 16, 172, 62, 193, 139, 142, 61, 227, 30, 139, 189, 200, 30, 168, 61, 149, 56, 196, 59, 146, 110, 150, 188, 204, 131, 136, 61, 105, 163, 97, 61, 112, 155, 147, 187, 224, 168, 114, 189, 242, 243, 125, 62, 68, 56, 138, 61, 5, 93, 250, 188, 122, 63, 53, 61, 147, 156, 234, 62, 154, 143, 18, 190, 147, 75, 222, 188, 9, 126, 206, 62, 81, 246, 80, 61, 192, 104, 89, 190, 221, 133, 97, 190, 89, 179, 162, 62, 234, 119, 33, 61, 228, 170, 18, 62, 4, 16, 98, 60, 221, 54, 148, 61, 254, 40, 205, 188, 138, 184, 77, 61, 134, 11, 133, 61, 136, 13, 55, 190, 124, 103, 133, 62, 209, 19, 13, 61, 225, 230, 3, 62, 25, 117, 218, 187, 142, 244, 171, 189, 222, 139, 4, 62, 241, 242, 21, 60, 0, 43, 1, 188, 159, 220, 250, 190, 251, 220, 176, 189, 41, 25, 167, 62, 20, 160, 139, 61, 42, 59, 11, 62, 230, 202, 75, 61, 36, 61, 6, 190, 89, 50, 188, 61, 246, 74, 139, 188, 74, 205, 33, 62, 35, 39, 219, 61, 165, 111, 174, 190, 50, 41, 82, 61, 91, 233, 20, 189, 180, 238, 14, 190, 121, 173, 13, 189, 74, 77, 226, 189, 176, 34, 110, 61, 36, 60, 254, 60, 190, 37, 253, 190, 233, 176, 141, 58, 178, 45, 16, 190, 225, 144, 17, 190, 165, 46, 187, 61, 231, 201, 229, 188, 192, 106, 144, 189, 154, 91, 60, 62, 88, 197, 139, 189, 73, 63, 247, 61, 222, 255, 161, 61, 65, 182, 229, 190, 98, 187, 159, 61, 26, 57, 26, 61, 47, 241, 20, 190, 66, 73, 138, 189, 114, 153, 101, 189, 30, 132, 24, 190, 145, 227, 179, 61, 105, 72, 8, 59, 192, 112, 7, 189, 18, 180, 144, 190, 76, 177, 26, 190, 163, 247, 137, 189, 57, 32, 3, 189, 172, 151, 199, 60, 15, 221, 55, 190, 224, 108, 12, 190, 183, 44, 195, 189, 136, 9, 103, 61, 23, 49, 5, 62, 142, 86, 247, 61, 30, 105, 177, 61, 29, 87, 29, 62, 197, 246, 36, 61, 88, 107, 144, 61, 34, 37, 131, 190, 157, 131, 142, 61, 213, 6, 225, 60, 142, 34, 0, 61, 124, 52, 141, 62, 3, 255, 57, 60, 104, 223, 207, 189, 100, 177, 74, 62, 74, 150, 20, 61, 19, 62, 57, 190, 138, 141, 156, 190, 191, 0, 18, 190, 109, 230, 27, 62, 184, 25, 250, 188, 245, 132, 110, 187, 194, 51, 218, 189, 195, 202, 23, 189, 56, 124, 56, 189, 58, 192, 193, 61, 45, 114, 217, 60, 169, 20, 103, 190, 243, 107, 171, 60, 164, 29, 245, 60, 213, 164, 143, 62, 31, 85, 200, 187, 77, 150, 20, 61, 86, 32, 57, 189, 126, 30, 230, 190, 226, 93, 28, 190, 91, 69, 189, 189, 199, 27, 231, 61, 37, 45, 174, 190, 214, 135, 31, 189, 5, 200, 131, 187, 228, 218, 76, 188, 135, 11, 60, 189, 242, 208, 45, 61, 41, 181, 88, 190, 110, 38, 73, 61, 110, 91, 172, 62, 255, 61, 223, 61, 229, 150, 64, 190, 94, 182, 17, 190, 48, 103, 167, 60, 94, 108, 142, 189, 55, 43, 121, 190, 78, 87, 203, 189, 97, 26, 26, 189, 120, 73, 173, 188, 237, 237, 202, 188, 25, 22, 3, 190, 74, 182, 11, 61, 247, 63, 18, 190, 222, 79, 131, 188, 40, 244, 108, 61, 230, 42, 203, 189, 45, 206, 199, 188, 236, 114, 9, 61, 53, 106, 85, 189, 180, 108, 26, 61, 133, 223, 57, 61, 149, 138, 134, 60, 48, 1, 215, 60, 184, 74, 232, 188, 52, 160, 250, 187, 206, 147, 96, 190, 153, 63, 16, 62, 195, 172, 62, 62, 136, 99, 20, 62, 38, 80, 28, 60, 56, 211, 240, 59, 199, 146, 50, 61, 68, 6, 109, 189, 178, 56, 215, 60, 204, 45, 108, 61, 45, 184, 50, 61, 206, 211, 70, 61, 194, 115, 43, 61, 223, 59, 122, 60, 148, 194, 2, 60, 217, 170, 178, 61, 46, 124, 80, 189, 9, 216, 188, 61, 2, 88, 168, 61, 69, 190, 13, 189, 90, 118, 100, 189, 12, 240, 249, 188, 123, 68, 33, 190, 105, 102, 151, 189, 31, 140, 120, 61, 232, 188, 84, 189, 90, 142, 94, 190, 247, 26, 202, 61, 171, 43, 90, 187, 218, 123, 13, 62, 126, 85, 97, 189, 182, 100, 169, 189, 46, 174, 137, 189, 202, 31, 136, 189, 100, 22, 141, 190, 90, 178, 155, 188, 98, 166, 59, 62, 205, 44, 185, 61, 141, 187, 70, 62, 188, 173, 177, 61, 239, 200, 136, 190, 249, 0, 0, 60, 83, 131, 118, 189, 49, 76, 49, 188, 45, 145, 12, 189, 0, 172, 187, 188, 144, 151, 67, 62, 16, 243, 107, 61, 2, 222, 193, 188, 164, 227, 16, 62, 103, 29, 98, 189, 158, 214, 35, 60, 164, 253, 93, 60, 8, 211, 117, 60, 203, 62, 49, 62, 101, 106, 89, 189, 56, 207, 25, 188, 38, 125, 53, 190, 28, 105, 73, 60, 146, 121, 6, 188, 133, 111, 212, 61, 22, 161, 89, 61, 84, 44, 137, 189, 224, 97, 65, 62, 151, 107, 187, 189, 120, 11, 9, 61, 235, 182, 123, 62, 5, 4, 229, 189, 123, 28, 154, 187, 55, 17, 71, 190, 208, 91, 1, 62, 156, 128, 38, 188, 41, 239, 25, 188, 33, 48, 196, 61, 88, 42, 59, 190, 138, 53, 219, 189, 116, 170, 115, 59, 88, 97, 189, 61, 56, 11, 188, 190, 31, 28, 189, 61, 109, 119, 220, 61, 98, 206, 196, 189, 104, 234, 218, 61, 43, 127, 149, 61, 77, 79, 169, 60, 48, 48, 35, 60, 177, 149, 2, 62, 82, 91, 197, 186, 164, 151, 233, 190, 204, 5, 255, 60, 78, 154, 24, 190, 85, 137, 203, 189, 43, 134, 29, 61, 52, 97, 14, 62, 95, 165, 249, 189, 249, 29, 20, 190, 53, 22, 0, 61, 245, 242, 129, 189, 91, 228, 55, 190, 59, 42, 32, 61, 31, 173, 43, 61, 95, 94, 242, 60, 108, 71, 154, 190, 39, 25, 131, 61, 66, 140, 48, 61, 66, 226, 132, 189, 255, 60, 144, 189, 112, 179, 135, 61, 77, 93, 245, 61, 241, 238, 32, 61, 140, 213, 81, 62, 222, 163, 212, 188, 109, 65, 34, 62, 62, 157, 30, 60, 69, 125, 21, 189, 230, 237, 243, 61, 190, 122, 121, 61, 168, 153, 112, 189, 156, 129, 85, 61, 195, 138, 37, 62, 80, 103, 210, 187, 57, 200, 119, 190, 44, 52, 16, 61, 168, 89, 149, 61, 21, 242, 106, 62, 202, 232, 72, 185, 151, 116, 100, 189, 125, 205, 130, 61, 95, 55, 244, 61, 121, 33, 71, 190, 114, 252, 121, 62, 185, 123, 32, 190, 37, 196, 13, 189, 228, 70, 59, 189, 214, 107, 87, 62, 236, 153, 104, 61, 14, 94, 158, 190, 226, 187, 229, 188, 185, 198, 139, 61, 128, 11, 114, 61, 228, 73, 175, 60, 169, 155, 167, 188, 191, 164, 15, 190, 47, 83, 98, 61, 39, 208, 144, 186, 76, 208, 146, 61, 117, 39, 146, 190, 206, 64, 160, 190, 57, 122, 53, 188, 56, 206, 107, 61, 244, 188, 206, 189, 5, 216, 9, 189, 241, 20, 118, 190, 159, 23, 79, 189, 216, 194, 154, 189, 168, 63, 51, 190, 218, 135, 95, 60, 77, 175, 29, 190, 198, 181, 170, 190, 168, 219, 155, 61, 236, 47, 237, 60, 105, 130, 86, 61, 138, 119, 175, 62, 124, 178, 47, 61, 75, 242, 156, 189, 15, 117, 104, 188, 80, 178, 2, 191, 238, 21, 22, 189, 86, 120, 173, 190, 109, 171, 25, 189, 152, 241, 138, 189, 14, 156, 138, 61, 27, 0, 30, 190, 5, 208, 160, 61, 104, 0, 152, 62, 120, 97, 84, 189, 85, 98, 60, 190, 223, 49, 8, 59, 88, 26, 39, 61, 66, 55, 5, 190, 86, 200, 40, 188, 35, 233, 112, 190, 105, 43, 103, 189, 179, 207, 138, 190, 40, 165, 133, 61, 233, 15, 42, 190, 204, 130, 76, 61, 87, 10, 35, 61, 176, 246, 153, 62, 154, 86, 100, 60, 228, 238, 164, 188, 200, 103, 123, 189, 232, 196, 246, 184, 120, 203, 66, 62, 220, 141, 68, 62, 203, 64, 167, 62, 97, 94, 86, 61, 223, 67, 193, 61, 29, 47, 137, 62, 138, 132, 49, 188, 67, 214, 189, 59, 111, 226, 79, 190, 230, 80, 129, 190, 30, 199, 91, 61, 156, 103, 254, 60, 128, 35, 238, 60, 230, 97, 25, 62, 50, 78, 187, 61, 10, 149, 82, 61, 25, 130, 252, 60, 32, 191, 143, 190, 67, 83, 205, 190, 167, 223, 178, 189, 180, 64, 210, 60, 153, 162, 184, 61, 39, 98, 62, 189, 130, 130, 16, 62, 232, 30, 130, 60, 116, 44, 8, 190, 66, 34, 223, 60, 239, 157, 68, 189, 101, 156, 154, 189, 76, 25, 153, 190, 225, 245, 135, 62, 134, 219, 78, 188, 148, 14, 115, 61, 136, 42, 81, 62, 196, 7, 67, 60, 3, 42, 112, 189, 78, 93, 185, 188, 106, 215, 208, 61, 235, 185, 78, 189, 240, 250, 21, 190, 210, 138, 129, 190, 64, 117, 48, 60, 255, 80, 23, 60, 20, 108, 195, 190, 41, 36, 232, 189, 232, 209, 220, 61, 147, 183, 119, 189, 61, 109, 68, 62, 69, 215, 1, 61, 39, 246, 82, 189, 39, 135, 79, 189, 45, 79, 202, 61, 39, 94, 169, 190, 212, 65, 112, 61, 111, 240, 125, 60, 158, 228, 128, 61, 138, 190, 27, 190, 98, 102, 21, 61, 134, 116, 44, 61, 212, 101, 129, 62, 159, 217, 97, 188, 70, 158, 85, 189, 31, 38, 161, 59, 118, 116, 137, 190, 154, 175, 194, 62, 195, 168, 189, 189, 33, 222, 21, 62, 39, 58, 251, 60, 218, 234, 232, 60, 166, 167, 142, 61, 200, 85, 241, 188, 125, 219, 130, 190, 190, 88, 130, 190, 90, 169, 73, 189, 103, 51, 60, 61, 124, 235, 94, 189, 24, 79, 77, 61, 150, 190, 1, 190, 125, 239, 33, 60, 89, 119, 151, 187, 208, 244, 219, 61, 209, 157, 204, 189, 15, 159, 129, 190, 219, 69, 57, 61, 120, 255, 213, 60, 246, 35, 136, 62, 15, 44, 7, 61, 237, 187, 23, 62, 62, 40, 135, 189, 243, 232, 50, 190, 86, 71, 62, 190, 230, 126, 76, 61, 160, 86, 254, 189, 179, 233, 78, 189, 134, 159, 217, 61, 53, 231, 174, 61, 30, 136, 28, 61, 140, 198, 43, 190, 188, 249, 130, 61, 56, 26, 143, 61, 139, 180, 4, 189, 101, 247, 202, 61, 119, 172, 151, 61, 13, 241, 37, 61, 236, 134, 208, 189, 58, 56, 208, 60, 182, 203, 186, 188, 205, 175, 241, 189, 110, 37, 6, 62, 103, 59, 90, 61, 184, 105, 215, 188, 127, 97, 15, 62, 152, 22, 46, 61, 75, 8, 216, 60, 132, 213, 91, 57, 230, 164, 92, 61, 217, 118, 204, 188, 135, 114, 173, 62, 158, 10, 12, 190, 242, 184, 11, 61, 110, 77, 39, 189, 160, 12, 83, 61, 182, 163, 59, 61, 24, 181, 69, 61, 241, 234, 38, 189, 134, 171, 23, 61, 46, 157, 58, 62, 81, 13, 108, 61, 224, 230, 36, 62, 237, 236, 66, 62, 53, 232, 15, 61, 100, 191, 76, 61, 148, 133, 134, 188, 140, 190, 181, 61, 242, 37, 209, 188, 48, 72, 167, 189, 135, 225, 211, 188, 104, 217, 239, 59, 117, 57, 177, 59, 147, 94, 211, 61, 129, 144, 12, 189, 73, 71, 238, 189, 164, 33, 231, 188, 175, 225, 37, 61, 144, 202, 7, 190, 95, 146, 73, 190, 86, 101, 164, 60, 103, 77, 120, 189, 122, 154, 146, 188, 58, 166, 116, 62, 214, 213, 129, 189, 78, 139, 130, 190, 252, 76, 21, 61, 98, 241, 82, 62, 203, 218, 200, 187, 152, 226, 44, 61, 184, 231, 93, 59, 149, 89, 46, 189, 191, 35, 52, 190, 161, 248, 57, 61, 188, 156, 132, 60, 42, 220, 84, 190, 204, 225, 23, 61, 126, 87, 19, 188, 237, 105, 154, 61, 158, 177, 229, 189, 196, 190, 197, 188, 162, 10, 238, 189, 181, 139, 211, 61, 96, 169, 97, 59, 215, 110, 162, 187, 111, 21, 37, 190, 165, 13, 138, 189, 104, 61, 4, 188, 116, 57, 111, 61, 47, 158, 232, 188, 208, 104, 78, 61, 195, 155, 201, 60, 65, 200, 193, 188, 255, 144, 128, 187, 14, 26, 65, 60, 83, 35, 55, 62, 175, 189, 191, 189, 32, 253, 152, 59, 28, 118, 39, 189, 211, 33, 199, 58, 165, 202, 213, 188, 208, 91, 85, 189, 35, 192, 234, 187, 144, 25, 135, 61, 2, 3, 165, 61, 13, 25, 38, 190, 228, 12, 53, 189, 126, 41, 22, 62, 17, 251, 92, 60, 129, 252, 23, 58, 13, 67, 0, 62, 8, 77, 228, 189, 14, 124, 244, 188, 227, 225, 219, 189, 198, 110, 4, 189, 38, 70, 29, 190, 26, 152, 158, 189, 160, 0, 218, 61, 36, 58, 154, 61, 139, 251, 248, 61, 165, 195, 245, 60, 108, 131, 51, 62, 36, 89, 223, 189, 123, 40, 138, 188, 92, 19, 255, 189, 66, 90, 246, 60, 124, 11, 141, 188, 3, 192, 128, 189, 88, 113, 77, 187, 235, 49, 139, 189, 32, 17, 186, 188, 109, 215, 47, 61, 240, 22, 176, 189, 193, 159, 115, 189, 12, 37, 2, 61, 187, 143, 147, 61, 238, 231, 17, 62, 20, 196, 155, 61, 214, 55, 44, 189, 224, 214, 85, 189, 251, 102, 46, 61, 122, 48, 70, 61, 136, 40, 197, 60, 139, 198, 27, 190, 63, 186, 57, 60, 52, 172, 197, 189, 87, 127, 58, 190, 28, 242, 91, 61, 14, 15, 18, 61, 150, 36, 180, 190, 220, 66, 97, 189, 184, 182, 39, 189, 56, 128, 133, 61, 168, 7, 17, 190, 0, 79, 162, 188, 142, 132, 139, 61, 252, 32, 137, 61, 102, 161, 35, 188, 123, 239, 56, 190, 32, 111, 164, 189, 75, 153, 144, 190, 24, 50, 212, 188, 233, 203, 22, 62, 11, 226, 170, 61, 190, 36, 134, 60, 228, 61, 4, 190, 124, 232, 131, 189, 36, 26, 47, 61, 245, 111, 36, 188, 8, 117, 0, 61, 162, 35, 69, 62, 210, 136, 220, 189, 78, 86, 132, 189, 250, 138, 144, 189, 108, 103, 121, 62, 95, 228, 90, 187, 20, 65, 26, 61, 48, 191, 220, 189, 65, 51, 87, 190, 178, 179, 137, 190, 106, 101, 158, 60, 131, 10, 202, 61, 60, 60, 98, 60, 98, 235, 29, 62, 49, 155, 218, 187, 3, 240, 123, 62, 9, 188, 229, 188, 78, 167, 131, 61, 76, 10, 129, 190, 210, 164, 140, 189, 184, 74, 7, 61, 158, 161, 0, 61, 230, 172, 65, 59, 40, 175, 32, 62, 248, 159, 141, 188, 194, 239, 21, 189, 120, 46, 14, 190, 147, 84, 180, 188, 141, 183, 82, 61, 21, 131, 237, 60, 83, 199, 240, 61, 48, 178, 174, 60, 24, 136, 102, 189, 168, 204, 153, 62, 28, 96, 176, 187, 156, 33, 166, 189, 28, 191, 198, 61, 1, 96, 154, 189, 82, 216, 253, 59, 33, 205, 37, 190, 255, 149, 140, 190, 128, 218, 202, 59, 49, 214, 140, 188, 174, 109, 163, 190, 41, 138, 45, 190, 18, 140, 1, 190, 53, 150, 7, 189, 72, 24, 109, 62, 2, 56, 152, 189, 212, 169, 5, 188, 126, 50, 179, 189, 66, 212, 193, 61, 176, 156, 77, 189, 90, 174, 37, 190, 165, 31, 17, 190, 44, 191, 47, 61, 32, 151, 212, 61, 231, 63, 176, 60, 254, 226, 156, 189, 98, 222, 155, 61, 197, 123, 96, 61, 228, 85, 61, 61, 10, 216, 198, 189, 57, 249, 156, 61, 55, 142, 237, 61, 72, 56, 1, 62, 66, 37, 101, 190, 244, 198, 52, 61, 69, 180, 106, 62, 136, 75, 79, 60, 40, 17, 230, 188, 225, 19, 31, 62, 205, 140, 196, 189, 54, 175, 190, 189, 187, 58, 80, 61, 5, 119, 81, 60, 44, 27, 162, 61, 174, 10, 73, 190, 38, 115, 101, 189, 254, 81, 85, 189, 215, 58, 148, 188, 136, 225, 10, 190, 252, 67, 4, 61, 101, 244, 148, 60, 72, 2, 235, 188, 135, 168, 31, 189, 79, 166, 65, 57, 250, 117, 33, 62, 176, 153, 19, 60, 83, 23, 219, 189, 192, 69, 146, 59, 231, 15, 237, 188, 251, 158, 80, 62, 143, 175, 203, 188, 3, 21, 45, 190, 105, 158, 112, 188, 54, 89, 39, 61, 244, 221, 42, 62, 6, 92, 23, 61, 146, 82, 60, 190, 241, 202, 7, 189, 15, 51, 24, 62, 86, 219, 229, 59, 20, 48, 52, 59, 242, 128, 48, 61, 56, 92, 132, 60, 138, 52, 44, 189, 109, 31, 190, 189, 168, 28, 169, 189, 125, 130, 29, 190, 18, 46, 140, 188, 173, 8, 18, 62, 206, 173, 1, 62, 101, 174, 207, 60, 161, 42, 41, 62, 196, 46, 117, 189, 240, 134, 98, 62, 80, 185, 172, 189, 63, 105, 163, 61, 44, 106, 131, 61, 242, 247, 36, 62, 124, 62, 58, 189, 212, 89, 199, 59, 167, 38, 213, 189, 158, 42, 14, 62, 128, 88, 175, 58, 136, 20, 140, 188, 187, 225, 193, 62, 147, 19, 182, 62, 233, 75, 68, 61, 169, 19, 108, 190, 40, 189, 132, 188, 159, 159, 21, 61, 156, 145, 130, 190, 234, 30, 114, 189, 23, 143, 253, 61, 241, 18, 196, 60, 21, 27, 248, 61, 212, 30, 19, 62, 207, 226, 75, 187, 95, 190, 133, 189, 156, 103, 144, 61, 185, 45, 138, 61, 108, 149, 146, 61, 29, 150, 66, 190, 154, 199, 235, 60, 224, 38, 215, 60, 45, 206, 133, 61, 160, 192, 58, 61, 121, 254, 119, 189, 54, 125, 140, 61, 14, 3, 139, 60, 176, 176, 203, 59, 221, 106, 119, 62, 219, 42, 84, 62, 26, 167, 255, 188, 197, 130, 178, 62, 43, 243, 244, 61, 186, 180, 1, 62, 186, 35, 71, 189, 160, 140, 52, 189, 221, 42, 121, 61, 90, 231, 201, 188, 11, 228, 47, 61, 99, 82, 133, 60, 118, 199, 61, 189, 175, 160, 183, 58, 83, 226, 199, 61, 153, 92, 252, 189, 228, 83, 120, 188, 114, 10, 69, 61, 9, 143, 75, 62, 224, 187, 166, 61, 188, 137, 196, 62, 224, 11, 78, 188, 240, 146, 156, 62, 148, 41, 207, 189, 39, 221, 24, 61, 104, 81, 49, 62, 228, 210, 50, 189, 127, 142, 174, 61, 85, 27, 45, 62, 188, 51, 18, 62, 116, 19, 53, 189, 193, 185, 14, 61, 250, 102, 8, 60, 133, 12, 153, 61, 180, 141, 5, 189, 100, 42, 229, 59, 191, 199, 103, 189, 129, 43, 89, 62, 20, 7, 205, 62, 16, 155, 219, 62, 61, 192, 79, 62, 122, 49, 130, 187, 249, 123, 142, 60, 137, 168, 148, 187, 202, 151, 232, 189, 133, 91, 113, 189, 41, 152, 129, 189, 41, 138, 232, 187, 215, 52, 45, 62, 10, 164, 136, 61, 192, 213, 25, 188, 136, 138, 191, 60, 39, 89, 242, 61, 179, 199, 176, 61, 248, 0, 25, 189, 211, 228, 54, 190, 40, 174, 55, 62, 19, 240, 246, 189, 106, 101, 88, 61, 0, 97, 234, 59, 130, 236, 63, 190, 169, 110, 10, 187, 240, 202, 24, 190, 8, 57, 203, 188, 150, 153, 0, 62, 106, 16, 81, 62, 239, 106, 66, 189, 246, 13, 87, 62, 232, 240, 167, 60, 172, 84, 209, 62, 139, 138, 25, 61, 6, 156, 93, 189, 202, 148, 166, 60, 215, 40, 64, 189, 183, 252, 32, 189, 173, 228, 251, 187, 213, 137, 58, 190, 56, 165, 143, 189, 178, 209, 52, 62, 20, 231, 17, 62, 212, 216, 116, 61, 152, 79, 213, 60, 166, 85, 116, 62, 166, 249, 134, 60, 28, 213, 18, 62, 40, 67, 107, 60, 59, 189, 214, 189, 76, 114, 0, 61, 160, 83, 195, 59, 210, 157, 41, 62, 8, 31, 154, 60, 100, 211, 78, 61, 119, 64, 209, 60, 227, 65, 176, 61, 12, 130, 22, 189, 84, 235, 49, 188, 13, 231, 232, 60, 221, 55, 46, 189, 102, 182, 136, 188, 85, 112, 129, 61, 124, 124, 188, 188, 34, 24, 197, 61, 1, 172, 218, 62, 223, 163, 14, 62, 122, 43, 171, 62, 24, 231, 156, 61, 184, 149, 103, 61, 194, 223, 41, 189, 217, 42, 144, 189, 118, 143, 59, 61, 83, 87, 138, 189, 154, 251, 73, 189, 155, 35, 60, 189, 199, 124, 128, 61, 156, 50, 168, 61, 233, 184, 142, 61, 87, 176, 56, 62, 237, 227, 149, 61, 212, 135, 205, 189, 33, 159, 64, 61, 183, 121, 250, 61, 252, 201, 85, 189, 207, 71, 196, 60, 32, 173, 194, 60, 186, 234, 93, 189, 112, 32, 130, 188, 114, 143, 143, 189, 184, 77, 142, 188, 153, 195, 12, 62, 21, 57, 174, 60, 233, 70, 131, 189, 89, 181, 59, 62, 59, 196, 12, 189, 210, 124, 103, 61, 215, 174, 103, 189, 67, 165, 117, 189, 82, 148, 143, 61, 244, 159, 175, 60, 43, 67, 57, 189, 68, 180, 76, 189, 174, 195, 196, 60, 150, 216, 70, 188, 78, 91, 99, 62, 143, 88, 136, 62, 156, 178, 59, 189, 80, 98, 123, 61, 130, 200, 233, 61, 17, 79, 208, 188, 96, 239, 69, 190, 242, 144, 61, 61, 157, 252, 1, 190, 157, 203, 141, 61, 44, 177, 75, 61, 230, 211, 5, 189, 67, 136, 249, 59, 173, 255, 111, 62, 107, 99, 108, 61, 5, 187, 222, 189, 38, 169, 50, 61, 249, 109, 84, 62, 104, 62, 18, 189, 159, 238, 152, 186, 184, 200, 21, 190, 67, 21, 121, 189, 1, 167, 109, 189, 187, 157, 39, 62, 68, 194, 59, 189, 26, 128, 52, 190, 48, 215, 100, 190, 67, 180, 101, 62, 97, 88, 32, 61, 175, 5, 22, 62, 18, 154, 108, 190, 66, 26, 188, 188, 118, 61, 22, 61, 99, 244, 27, 62, 234, 232, 2, 187, 234, 191, 164, 188, 116, 13, 222, 58, 211, 184, 7, 61, 215, 176, 140, 62, 150, 73, 2, 61, 76, 180, 153, 189, 233, 160, 42, 62, 247, 128, 42, 61, 108, 253, 113, 62, 218, 136, 147, 189, 180, 133, 67, 61, 120, 165, 173, 61, 79, 156, 26, 60, 250, 97, 57, 61, 144, 76, 141, 59, 128, 157, 201, 61, 7, 33, 56, 62, 60, 125, 99, 61, 43, 102, 22, 62, 236, 72, 86, 62, 219, 228, 130, 190, 166, 145, 184, 188, 152, 92, 206, 188, 162, 40, 41, 190, 208, 109, 233, 60, 7, 17, 48, 62, 254, 192, 139, 188, 217, 197, 182, 62, 18, 26, 162, 186, 61, 191, 43, 62, 113, 173, 143, 62, 128, 120, 48, 186, 68, 202, 155, 60, 175, 129, 42, 190, 4, 179, 31, 61, 25, 112, 189, 190, 20, 233, 14, 61, 194, 65, 23, 61, 236, 175, 124, 189, 214, 4, 94, 189, 19, 0, 134, 61, 158, 92, 7, 61, 191, 111, 165, 61, 94, 250, 134, 190, 122, 37, 184, 189, 123, 29, 136, 189, 222, 191, 129, 187, 207, 53, 25, 61, 8, 185, 130, 61, 186, 169, 94, 61, 239, 131, 0, 62, 114, 189, 52, 61, 152, 28, 21, 190, 53, 226, 94, 60, 213, 178, 209, 60, 219, 107, 53, 62, 17, 96, 179, 61, 159, 18, 137, 61, 196, 232, 51, 62, 165, 242, 187, 61, 181, 3, 85, 189, 112, 108, 147, 62, 123, 16, 62, 61, 136, 101, 111, 61, 71, 122, 232, 187, 170, 162, 37, 61, 63, 3, 174, 61, 3, 41, 6, 62, 148, 170, 147, 61, 26, 41, 138, 189, 61, 236, 98, 190, 187, 44, 153, 189, 231, 202, 39, 62, 132, 249, 202, 187, 7, 33, 112, 189, 171, 172, 111, 60, 36, 94, 89, 189, 213, 157, 127, 187, 64, 109, 143, 58, 213, 129, 159, 61, 155, 237, 169, 61, 3, 8, 208, 60, 254, 137, 76, 62, 9, 25, 240, 59, 191, 86, 203, 189, 155, 214, 103, 188, 224, 89, 133, 61, 216, 161, 88, 62, 135, 174, 153, 187, 255, 222, 5, 190, 13, 137, 61, 189, 76, 120, 16, 190, 96, 26, 168, 188, 208, 193, 66, 60, 243, 148, 72, 61, 200, 253, 53, 188, 201, 160, 139, 61, 200, 254, 83, 60, 145, 225, 158, 188, 217, 31, 106, 190, 142, 131, 211, 188, 150, 89, 222, 62, 203, 84, 158, 190, 208, 137, 229, 186, 88, 196, 10, 62, 23, 19, 119, 61, 155, 113, 103, 187, 60, 159, 165, 189, 197, 122, 138, 62, 208, 53, 105, 61, 21, 213, 38, 189, 89, 154, 172, 61, 170, 177, 45, 61, 177, 66, 183, 189, 161, 47, 226, 61, 173, 207, 37, 189, 235, 214, 128, 190, 110, 178, 83, 62, 10, 162, 7, 62, 220, 78, 83, 61, 6, 47, 18, 189, 20, 188, 55, 189, 30, 253, 182, 189, 63, 65, 171, 189, 200, 47, 132, 189, 237, 221, 4, 190, 128, 96, 101, 61, 46, 153, 101, 61, 211, 218, 63, 61, 10, 183, 133, 61, 95, 139, 222, 60, 94, 228, 231, 188, 130, 86, 50, 61, 125, 79, 60, 190, 93, 249, 40, 190, 61, 68, 43, 62, 60, 134, 57, 190, 96, 43, 90, 187, 204, 152, 199, 60, 188, 55, 65, 190, 155, 74, 60, 189, 29, 167, 207, 189, 56, 29, 141, 189, 178, 19, 37, 189, 216, 195, 166, 190, 249, 246, 83, 189, 178, 209, 103, 61, 142, 204, 21, 60, 238, 172, 58, 190, 2, 224, 97, 61, 208, 34, 14, 61, 223, 77, 223, 61, 152, 67, 107, 188, 154, 50, 50, 62, 255, 230, 180, 189, 194, 81, 86, 190, 116, 38, 0, 60, 217, 246, 253, 59, 60, 67, 232, 188, 192, 241, 221, 187, 181, 68, 162, 60, 40, 78, 12, 61, 90, 107, 53, 61, 251, 88, 132, 190, 236, 79, 71, 61, 138, 10, 53, 190, 73, 19, 186, 190, 66, 171, 43, 61, 6, 160, 128, 189, 199, 203, 104, 188, 68, 27, 129, 189, 250, 207, 155, 190, 29, 67, 170, 61, 85, 158, 17, 189, 230, 206, 251, 61, 208, 201, 85, 61, 142, 121, 106, 189, 139, 184, 170, 61, 84, 112, 206, 61, 156, 56, 88, 189, 178, 44, 152, 190, 170, 42, 88, 61, 165, 207, 136, 190, 20, 86, 164, 61, 28, 230, 228, 61, 212, 225, 130, 189, 35, 163, 99, 190, 206, 153, 67, 189, 162, 217, 237, 188, 55, 35, 48, 190, 181, 111, 91, 190, 37, 117, 147, 189, 242, 95, 179, 60, 148, 244, 102, 61, 31, 184, 102, 61, 102, 0, 102, 189, 191, 237, 50, 61, 136, 148, 54, 189, 71, 21, 3, 60, 244, 139, 179, 60, 208, 218, 144, 189, 12, 171, 117, 188, 128, 137, 108, 186, 215, 47, 28, 62, 73, 93, 248, 60, 230, 217, 128, 189, 248, 198, 206, 188, 124, 241, 249, 189, 131, 110, 152, 190, 219, 228, 149, 189, 128, 49, 117, 61, 226, 186, 216, 189, 117, 97, 75, 190, 69, 17, 42, 61, 22, 134, 22, 61, 107, 245, 78, 189, 120, 103, 178, 60, 232, 178, 3, 190, 20, 60, 172, 60, 186, 120, 246, 61, 180, 53, 68, 188, 233, 198, 239, 189, 40, 120, 145, 61, 140, 53, 35, 188, 227, 243, 40, 61, 26, 72, 13, 189, 25, 110, 146, 189, 212, 254, 12, 190, 94, 127, 137, 189, 34, 116, 99, 60, 136, 165, 36, 190, 81, 92, 117, 188, 100, 103, 151, 190, 71, 52, 127, 61, 12, 56, 180, 61, 219, 34, 77, 190, 145, 202, 77, 61, 135, 161, 148, 60, 2, 130, 234, 189, 209, 76, 115, 61, 93, 101, 119, 189, 107, 148, 2, 61, 245, 202, 146, 61, 232, 50, 108, 188, 55, 91, 52, 190, 85, 110, 247, 189, 40, 242, 57, 190, 44, 63, 144, 61, 154, 132, 125, 189, 20, 145, 213, 60, 234, 62, 223, 59, 94, 103, 113, 60, 0, 233, 146, 189, 92, 155, 249, 189, 158, 19, 75, 187, 207, 49, 33, 189, 188, 134, 179, 188, 48, 149, 252, 61, 244, 172, 58, 61, 194, 16, 214, 188, 11, 49, 199, 186, 248, 87, 57, 61, 9, 36, 211, 189, 157, 79, 195, 188, 119, 83, 57, 188, 143, 242, 214, 189, 18, 211, 147, 188, 52, 93, 128, 190, 250, 92, 136, 61, 39, 36, 22, 62, 140, 186, 102, 188, 238, 150, 133, 59, 242, 127, 62, 62, 114, 182, 175, 61, 17, 245, 195, 61, 114, 156, 137, 61, 41, 27, 165, 189, 228, 140, 174, 61, 220, 197, 133, 60, 104, 151, 167, 187, 25, 203, 218, 188, 94, 13, 7, 62, 60, 33, 202, 188, 179, 90, 23, 62, 179, 226, 1, 61, 4, 59, 223, 189, 199, 209, 245, 61, 54, 178, 33, 189, 139, 134, 35, 189, 133, 41, 19, 62, 17, 64, 241, 61, 207, 186, 90, 189, 121, 53, 94, 189, 84, 147, 70, 188, 131, 119, 57, 189, 147, 16, 42, 60, 189, 174, 140, 60, 174, 91, 106, 61, 67, 67, 194, 61, 72, 50, 147, 189, 47, 236, 31, 189, 120, 105, 64, 189, 6, 143, 8, 188, 127, 138, 137, 188, 39, 30, 100, 59, 88, 234, 83, 59, 48, 68, 87, 188, 192, 90, 130, 58, 54, 74, 18, 190, 179, 110, 29, 190, 120, 74, 46, 190, 184, 111, 126, 61, 129, 67, 102, 62, 150, 136, 10, 61, 215, 56, 76, 190, 216, 176, 70, 62, 251, 135, 21, 189, 182, 168, 118, 189, 86, 240, 167, 61, 73, 202, 175, 189, 40, 234, 113, 189, 138, 12, 252, 61, 188, 139, 185, 60, 213, 225, 143, 190, 240, 80, 228, 60, 221, 228, 25, 62, 146, 222, 32, 62, 196, 1, 144, 62, 190, 112, 147, 59, 53, 210, 64, 60, 248, 172, 151, 60, 31, 181, 63, 62, 12, 66, 83, 60, 1, 97, 130, 190, 185, 104, 4, 189, 111, 27, 177, 189, 43, 55, 9, 190, 100, 1, 126, 61, 157, 234, 136, 62, 224, 210, 29, 188, 126, 42, 205, 189, 89, 238, 12, 189, 160, 239, 150, 187, 23, 209, 79, 62, 218, 105, 64, 60, 118, 209, 114, 188, 65, 61, 123, 189, 130, 122, 158, 190, 196, 99, 155, 59, 57, 169, 31, 190, 216, 78, 41, 62, 168, 193, 70, 188, 182, 200, 108, 59, 216, 191, 40, 189, 211, 92, 254, 188, 145, 214, 138, 61, 176, 167, 166, 60, 177, 107, 240, 188, 73, 17, 84, 189, 181, 52, 213, 60, 136, 198, 6, 62, 248, 62, 214, 187, 0, 228, 40, 190, 174, 106, 225, 189, 209, 236, 123, 60, 124, 132, 138, 60, 126, 242, 162, 60, 229, 224, 104, 189, 57, 1, 115, 60, 228, 197, 39, 62, 146, 92, 246, 188, 216, 112, 147, 60, 98, 107, 170, 190, 75, 186, 118, 61, 219, 94, 3, 191, 12, 123, 93, 62, 200, 161, 161, 189, 39, 78, 74, 189, 244, 193, 150, 190, 15, 3, 33, 62, 160, 59, 117, 189, 150, 47, 41, 190, 167, 90, 11, 190, 145, 24, 32, 190, 86, 238, 190, 61, 228, 62, 15, 60, 67, 147, 177, 188, 214, 1, 104, 61, 239, 160, 32, 60, 215, 198, 41, 62, 65, 233, 4, 62, 191, 241, 19, 60, 143, 170, 71, 190, 136, 97, 0, 61, 19, 116, 134, 189, 148, 140, 74, 62, 75, 226, 165, 189, 64, 73, 51, 190, 136, 182, 18, 61, 232, 176, 102, 61, 115, 61, 4, 190, 66, 60, 89, 61, 33, 48, 103, 61, 12, 47, 216, 190, 130, 135, 211, 61, 110, 121, 218, 60, 149, 98, 122, 61, 40, 55, 112, 62, 135, 109, 113, 61, 177, 168, 152, 190, 252, 108, 44, 60, 1, 108, 147, 190, 142, 44, 40, 188, 20, 189, 220, 190, 90, 32, 26, 62, 141, 250, 117, 61, 68, 148, 231, 58, 25, 216, 136, 190, 169, 21, 1, 190, 220, 105, 156, 62, 25, 249, 224, 60, 207, 151, 159, 190, 197, 223, 195, 60, 141, 72, 51, 189, 118, 73, 204, 189, 167, 65, 227, 188, 252, 128, 121, 190, 42, 84, 128, 190, 214, 22, 177, 190, 144, 92, 208, 188, 168, 70, 126, 62, 86, 91, 181, 187, 240, 206, 98, 61, 110, 243, 211, 62, 167, 59, 45, 61, 224, 58, 98, 60, 21, 124, 185, 190, 97, 160, 165, 61, 155, 21, 52, 190, 115, 215, 218, 61, 64, 73, 41, 61, 99, 128, 43, 61, 171, 251, 65, 61, 254, 33, 63, 62, 83, 140, 144, 60, 204, 219, 86, 190, 20, 202, 187, 190, 95, 243, 222, 190, 229, 82, 44, 62, 31, 130, 218, 188, 71, 15, 22, 189, 69, 30, 165, 62, 107, 38, 155, 189, 194, 37, 180, 62, 8, 247, 53, 62, 135, 75, 213, 189, 12, 235, 151, 190, 203, 167, 47, 188, 112, 209, 225, 60, 26, 29, 243, 62, 24, 193, 35, 61, 1, 159, 142, 62, 152, 37, 136, 60, 193, 49, 46, 190, 63, 229, 92, 190, 102, 80, 95, 188, 29, 56, 15, 61, 187, 44, 139, 190, 83, 136, 172, 62, 183, 219, 146, 61, 142, 249, 86, 60, 239, 200, 154, 62, 108, 148, 52, 189, 109, 45, 214, 190, 244, 99, 250, 188, 43, 201, 62, 62, 116, 246, 79, 189, 88, 75, 197, 190, 19, 138, 132, 62, 208, 49, 164, 187, 207, 50, 129, 61, 90, 40, 113, 190, 89, 133, 247, 189, 137, 161, 12, 62, 54, 68, 43, 60, 220, 169, 226, 61, 230, 121, 144, 61, 122, 126, 18, 61, 134, 85, 166, 61, 83, 125, 226, 60, 233, 40, 158, 190, 64, 251, 171, 61, 166, 155, 213, 58, 44, 233, 120, 61, 13, 243, 187, 189, 105, 149, 195, 188, 83, 115, 194, 60, 73, 148, 101, 61, 180, 54, 134, 61, 96, 225, 154, 187, 240, 214, 153, 189, 224, 204, 183, 61, 107, 45, 8, 62, 112, 169, 113, 189, 107, 23, 153, 61, 9, 209, 98, 189, 251, 167, 55, 62, 95, 38, 244, 60, 140, 111, 189, 60, 229, 65, 74, 60, 58, 165, 73, 190, 243, 221, 89, 190, 213, 72, 181, 61, 198, 34, 81, 59, 17, 244, 73, 60, 151, 22, 241, 189, 16, 209, 40, 61, 88, 241, 32, 61, 130, 94, 34, 62, 4, 56, 5, 62, 116, 60, 70, 190, 17, 163, 74, 60, 80, 198, 200, 59, 230, 183, 214, 61, 3, 66, 38, 59, 17, 80, 54, 62, 88, 2, 45, 61, 184, 189, 138, 190, 213, 66, 205, 189, 151, 248, 145, 61, 191, 38, 17, 190, 71, 19, 100, 190, 217, 74, 71, 62, 110, 228, 6, 62, 60, 223, 105, 61, 234, 144, 20, 190, 195, 163, 32, 189, 127, 241, 35, 190, 220, 47, 189, 189, 16, 9, 31, 62, 3, 135, 34, 189, 173, 100, 248, 189, 99, 99, 57, 190, 148, 192, 125, 61, 86, 70, 59, 61, 161, 135, 92, 190, 162, 245, 57, 62, 224, 129, 143, 189, 132, 239, 213, 188, 149, 81, 26, 61, 67, 127, 203, 61, 223, 158, 106, 187, 103, 133, 192, 189, 183, 35, 32, 61, 235, 24, 212, 189, 120, 131, 130, 62, 184, 137, 42, 190, 24, 25, 90, 60, 202, 83, 153, 190, 165, 29, 38, 59, 61, 178, 57, 60, 158, 68, 154, 188, 204, 184, 16, 189, 186, 54, 161, 188, 239, 102, 134, 62, 216, 231, 152, 188, 247, 249, 120, 190, 158, 5, 145, 61, 119, 217, 147, 62, 215, 244, 212, 60, 134, 167, 89, 189, 96, 133, 39, 62, 45, 39, 135, 189, 175, 35, 39, 190, 248, 15, 58, 186, 167, 13, 60, 190, 229, 193, 81, 61, 242, 118, 0, 62, 19, 8, 110, 61, 200, 108, 55, 60, 212, 142, 25, 189, 131, 187, 233, 61, 166, 116, 144, 188, 238, 74, 148, 60, 216, 16, 174, 61, 127, 191, 42, 60, 48, 13, 185, 59, 106, 82, 107, 62, 85, 211, 27, 61, 234, 88, 220, 189, 204, 36, 250, 60, 164, 68, 105, 189, 101, 208, 87, 190, 183, 248, 109, 189, 118, 157, 121, 60, 110, 8, 46, 190, 185, 227, 122, 60, 15, 69, 106, 188, 64, 86, 189, 60, 160, 71, 199, 190, 46, 76, 187, 188, 89, 246, 125, 189, 223, 231, 9, 189, 101, 135, 235, 188, 57, 115, 186, 60, 233, 183, 15, 190, 41, 78, 137, 62, 160, 237, 249, 60, 90, 198, 22, 61, 81, 38, 154, 190, 91, 49, 153, 61, 105, 203, 51, 62, 226, 26, 129, 188, 90, 30, 93, 190, 45, 103, 28, 190, 134, 204, 163, 188, 178, 136, 11, 190, 231, 103, 183, 61, 224, 84, 4, 61, 142, 196, 18, 189, 70, 204, 101, 188, 248, 181, 17, 189, 70, 124, 108, 61, 170, 249, 49, 189, 95, 13, 197, 56, 53, 147, 8, 190, 110, 77, 92, 61, 12, 60, 29, 61, 217, 68, 187, 188, 27, 251, 208, 189, 87, 84, 34, 190, 48, 137, 134, 189, 41, 90, 50, 61, 22, 225, 85, 189, 247, 100, 46, 62, 188, 90, 97, 189, 180, 120, 175, 60, 204, 248, 231, 57, 245, 142, 96, 61, 254, 252, 254, 189, 219, 130, 155, 61, 170, 78, 228, 61, 170, 194, 85, 61, 178, 111, 122, 61, 40, 126, 247, 189, 91, 220, 203, 61, 134, 213, 191, 59, 123, 104, 12, 62, 32, 1, 145, 60, 161, 38, 2, 61, 0, 231, 251, 60, 218, 247, 69, 61, 13, 179, 19, 60, 61, 14, 153, 189, 132, 239, 93, 61, 119, 45, 151, 188, 178, 32, 181, 190, 158, 102, 117, 61, 229, 179, 132, 62, 246, 51, 3, 62, 227, 98, 185, 62, 42, 47, 107, 189, 72, 169, 15, 188, 125, 218, 108, 61, 26, 79, 129, 60, 93, 164, 26, 62, 162, 10, 88, 189, 214, 114, 141, 187, 8, 192, 107, 187, 105, 111, 25, 61, 223, 252, 50, 189, 156, 246, 6, 61, 151, 169, 26, 186, 56, 215, 145, 190, 160, 14, 92, 187, 174, 208, 200, 188, 244, 32, 143, 188, 132, 137, 178, 190, 146, 52, 162, 189, 232, 86, 47, 189, 188, 7, 87, 189, 152, 216, 141, 61, 184, 142, 142, 190, 130, 113, 129, 190, 212, 30, 163, 190, 147, 68, 19, 189, 218, 120, 186, 62, 216, 207, 143, 60, 33, 23, 205, 60, 179, 191, 231, 187, 122, 146, 154, 60, 76, 60, 109, 61, 229, 153, 57, 190, 92, 18, 161, 189, 241, 75, 43, 62, 86, 183, 189, 61, 192, 123, 135, 61, 203, 66, 20, 189, 137, 178, 32, 62, 172, 229, 230, 57, 175, 204, 15, 189, 134, 186, 223, 189, 210, 63, 103, 190, 37, 105, 135, 190, 247, 142, 75, 61, 150, 57, 199, 61, 8, 224, 76, 61, 166, 30, 199, 61, 141, 243, 29, 59, 9, 55, 74, 62, 24, 79, 2, 62, 44, 239, 208, 61, 137, 234, 152, 190, 57, 236, 2, 189, 132, 62, 121, 188, 224, 57, 3, 62, 65, 77, 108, 61, 150, 196, 177, 61, 224, 244, 138, 59, 110, 160, 170, 190, 191, 155, 217, 189, 231, 39, 196, 60, 37, 121, 125, 62, 71, 15, 220, 61, 250, 221, 27, 63, 82, 201, 165, 61, 242, 155, 22, 187, 197, 243, 182, 62, 190, 192, 149, 58, 121, 83, 85, 190, 124, 73, 131, 189, 118, 246, 149, 189, 132, 132, 24, 61, 228, 212, 88, 62, 39, 2, 222, 61, 152, 149, 130, 188, 134, 240, 27, 61, 248, 43, 164, 190, 158, 235, 137, 187, 13, 135, 76, 188, 197, 28, 114, 189, 59, 183, 157, 62, 164, 4, 129, 190, 39, 111, 122, 60, 63, 113, 166, 189, 149, 177, 14, 61, 165, 132, 10, 61, 125, 43, 85, 190, 150, 55, 88, 190, 246, 228, 146, 189, 28, 89, 135, 61, 48, 201, 120, 59, 104, 208, 144, 61, 68, 189, 169, 189, 26, 219, 197, 188, 48, 219, 241, 60, 65, 201, 211, 189, 146, 4, 137, 61, 245, 42, 191, 61, 30, 18, 72, 62, 219, 233, 13, 190, 75, 161, 168, 188, 149, 243, 140, 62, 118, 145, 60, 61, 166, 12, 51, 189, 251, 123, 226, 60, 204, 138, 5, 190, 224, 205, 66, 190, 143, 121, 60, 189, 83, 50, 169, 60, 81, 116, 12, 61, 248, 154, 106, 190, 72, 98, 82, 189, 0, 234, 218, 60, 64, 10, 157, 60, 236, 74, 205, 189, 83, 240, 113, 190, 152, 34, 177, 187, 140, 31, 222, 60, 246, 251, 67, 189, 101, 188, 34, 59, 22, 199, 210, 61, 28, 149, 109, 61, 241, 24, 198, 190, 139, 159, 149, 61, 31, 126, 29, 189, 64, 204, 94, 62, 251, 248, 139, 190, 221, 246, 60, 189, 105, 154, 193, 188, 236, 11, 245, 60, 98, 30, 83, 189, 112, 255, 44, 189, 176, 165, 241, 189, 218, 98, 135, 188, 143, 39, 71, 188, 94, 35, 177, 188, 252, 44, 92, 61, 67, 105, 34, 62, 168, 28, 10, 188, 58, 54, 42, 61, 117, 62, 146, 187, 10, 46, 90, 61, 8, 200, 240, 188, 32, 44, 233, 59, 249, 205, 40, 189, 233, 100, 38, 190, 129, 110, 41, 61, 121, 229, 88, 190, 230, 214, 19, 62, 244, 62, 133, 61, 145, 169, 110, 61, 186, 29, 171, 189, 208, 139, 104, 60, 189, 215, 35, 189, 133, 57, 147, 61, 196, 187, 118, 60, 210, 117, 222, 61, 105, 156, 210, 61, 64, 189, 32, 189, 80, 90, 133, 61, 209, 121, 181, 188, 210, 139, 182, 61, 82, 21, 182, 189, 63, 57, 32, 62, 243, 175, 221, 188, 152, 191, 217, 61, 199, 218, 72, 62, 70, 82, 142, 61, 184, 71, 251, 189, 54, 109, 27, 62, 55, 57, 235, 189, 6, 151, 160, 189, 213, 216, 14, 60, 159, 164, 229, 60, 35, 76, 134, 60, 199, 191, 148, 61, 8, 78, 162, 61, 75, 34, 137, 62, 95, 215, 219, 61, 44, 49, 157, 60, 92, 104, 183, 60, 52, 93, 165, 60, 237, 203, 110, 62, 14, 45, 22, 61, 88, 148, 177, 61, 84, 248, 144, 60, 47, 6, 0, 190, 86, 142, 140, 61, 47, 163, 56, 61, 204, 53, 42, 61, 230, 145, 0, 62, 144, 209, 61, 190, 160, 48, 93, 60, 62, 106, 66, 189, 78, 225, 122, 189, 66, 252, 116, 189, 236, 255, 151, 61, 227, 171, 142, 59, 61, 105, 138, 61, 209, 228, 174, 61, 13, 98, 47, 61, 83, 15, 99, 189, 76, 102, 116, 188, 118, 249, 37, 61, 207, 112, 111, 190, 166, 217, 245, 59, 170, 123, 104, 189, 38, 111, 139, 61, 190, 233, 27, 189, 126, 45, 17, 187, 79, 61, 78, 189, 3, 195, 152, 188, 117, 13, 111, 61, 119, 108, 243, 61, 35, 223, 192, 61, 146, 253, 83, 190, 96, 128, 64, 60, 169, 54, 0, 60, 127, 185, 252, 60, 204, 169, 54, 61, 214, 86, 98, 61, 3, 249, 103, 61, 178, 235, 139, 61, 55, 25, 63, 61, 198, 89, 118, 60, 209, 114, 2, 190, 29, 251, 155, 189, 74, 122, 79, 61, 143, 46, 28, 60, 60, 138, 137, 189, 44, 40, 47, 61, 186, 209, 84, 189, 172, 209, 28, 190, 113, 110, 33, 61, 78, 124, 125, 190, 185, 147, 217, 189, 240, 95, 155, 188, 110, 160, 167, 60, 240, 42, 99, 61, 65, 231, 87, 61, 28, 108, 185, 61, 194, 86, 188, 61, 120, 79, 35, 60, 117, 105, 77, 62, 209, 241, 139, 61, 32, 231, 123, 61, 248, 211, 167, 62, 224, 73, 134, 188, 219, 174, 171, 61, 142, 37, 111, 189, 122, 211, 81, 190, 201, 247, 136, 188, 180, 43, 187, 188, 164, 80, 67, 189, 152, 140, 14, 189, 125, 94, 103, 190, 143, 48, 217, 188, 104, 218, 1, 61, 156, 142, 31, 190, 156, 201, 189, 60, 12, 80, 175, 187, 213, 156, 143, 61, 149, 115, 13, 62, 237, 173, 156, 61, 124, 18, 141, 190, 147, 91, 94, 189, 50, 182, 54, 61, 190, 230, 251, 188, 94, 135, 138, 189, 196, 130, 200, 61, 223, 146, 5, 189, 154, 226, 115, 189, 156, 194, 124, 62, 205, 170, 91, 190, 124, 168, 147, 188, 29, 188, 30, 62, 207, 8, 33, 62, 38, 72, 155, 61, 148, 69, 109, 190, 98, 43, 12, 61, 214, 72, 197, 188, 230, 48, 204, 61, 198, 222, 238, 60, 154, 135, 213, 188, 59, 1, 120, 61, 204, 40, 219, 61, 196, 123, 20, 61, 182, 32, 188, 189, 94, 85, 14, 62, 68, 14, 146, 61, 20, 53, 205, 189, 130, 142, 84, 189, 253, 171, 90, 189, 233, 80, 130, 59, 40, 81, 152, 61, 128, 78, 42, 61, 230, 211, 178, 189, 21, 99, 138, 188, 218, 174, 40, 62, 108, 102, 121, 189, 98, 220, 68, 189, 72, 118, 30, 61, 58, 160, 99, 188, 26, 164, 175, 61, 186, 38, 222, 59, 112, 131, 21, 61, 112, 100, 23, 61, 28, 215, 115, 58, 29, 166, 60, 61, 56, 115, 152, 188, 15, 16, 233, 60, 32, 31, 58, 61, 220, 253, 14, 61, 56, 244, 42, 60, 27, 156, 211, 189, 243, 135, 5, 189, 45, 89, 31, 61, 96, 111, 240, 188, 27, 82, 3, 189, 231, 81, 143, 61, 129, 129, 91, 61, 252, 88, 101, 61, 108, 37, 203, 189, 127, 211, 57, 189, 76, 0, 178, 188, 176, 248, 176, 61, 44, 214, 220, 189, 251, 241, 194, 61, 155, 115, 38, 190, 88, 81, 243, 189, 208, 248, 119, 60, 90, 246, 156, 188, 5, 28, 69, 62, 22, 201, 236, 61, 42, 10, 48, 62, 104, 194, 184, 60, 205, 61, 174, 61, 191, 215, 140, 189, 139, 72, 38, 189, 8, 160, 27, 62, 153, 130, 231, 61, 146, 206, 94, 190, 109, 62, 145, 190, 128, 84, 51, 62, 236, 196, 82, 188, 244, 252, 7, 190, 159, 151, 188, 188, 34, 222, 170, 60, 86, 129, 70, 62, 67, 162, 0, 61, 43, 181, 7, 189, 66, 195, 114, 190, 229, 37, 89, 62, 131, 82, 205, 61, 204, 131, 43, 62, 55, 51, 133, 61, 232, 221, 96, 189, 90, 50, 115, 190, 141, 94, 22, 62, 174, 13, 52, 189, 80, 86, 20, 190, 143, 79, 243, 189, 6, 70, 15, 62, 111, 22, 136, 61, 173, 238, 200, 61, 171, 19, 0, 62, 81, 216, 22, 61, 138, 9, 53, 61, 61, 193, 130, 189, 55, 239, 158, 189, 216, 56, 249, 187, 56, 143, 158, 189, 224, 17, 22, 61, 72, 48, 100, 189, 155, 193, 57, 62, 179, 82, 36, 189, 45, 157, 93, 188, 100, 56, 63, 189, 121, 210, 75, 61, 147, 92, 43, 190, 66, 147, 86, 61, 106, 225, 132, 62, 46, 228, 71, 189, 138, 185, 147, 61, 204, 43, 27, 189, 20, 60, 223, 60, 152, 36, 87, 62, 96, 116, 21, 187, 81, 76, 148, 190, 79, 88, 15, 57, 56, 12, 3, 190, 65, 62, 72, 188, 57, 213, 225, 61, 82, 120, 233, 189, 50, 91, 193, 188, 230, 184, 235, 188, 173, 14, 190, 61, 127, 15, 214, 189, 1, 248, 60, 62, 229, 138, 32, 189, 13, 62, 86, 188, 145, 60, 86, 190, 53, 2, 185, 188, 140, 147, 192, 189, 43, 11, 7, 62, 222, 0, 152, 61, 251, 187, 207, 188, 74, 236, 150, 189, 188, 129, 61, 189, 58, 218, 225, 189, 236, 176, 88, 189, 198, 108, 21, 189, 174, 207, 18, 62, 245, 249, 230, 60, 190, 104, 56, 189, 241, 222, 202, 188, 4, 94, 37, 190, 186, 101, 114, 189, 133, 223, 242, 189, 209, 91, 24, 190, 8, 47, 142, 189, 74, 33, 215, 189, 54, 31, 45, 62, 48, 1, 104, 60, 222, 171, 182, 189, 58, 65, 213, 61, 201, 61, 80, 189, 134, 146, 197, 61, 39, 241, 161, 60, 7, 50, 69, 59, 219, 150, 28, 62, 88, 1, 110, 189, 56, 234, 79, 62, 246, 161, 231, 61, 174, 172, 106, 61, 64, 32, 210, 189, 102, 249, 9, 62, 13, 111, 24, 189, 85, 114, 3, 62, 169, 177, 88, 60, 94, 153, 173, 61, 240, 113, 11, 60, 10, 207, 147, 189, 202, 23, 71, 190, 151, 49, 14, 189, 147, 150, 254, 189, 188, 154, 127, 188, 79, 130, 85, 189, 145, 158, 209, 60, 208, 244, 232, 187, 55, 174, 241, 190, 177, 54, 82, 189, 36, 235, 245, 61, 134, 201, 204, 61, 136, 249, 122, 62, 112, 36, 52, 60, 121, 5, 36, 62, 111, 163, 10, 190, 114, 216, 35, 61, 24, 208, 116, 60, 56, 44, 94, 190, 163, 40, 184, 189, 132, 176, 4, 62, 42, 12, 57, 189, 74, 193, 88, 190, 171, 206, 195, 61, 252, 141, 71, 60, 126, 252, 143, 190, 82, 131, 27, 61, 130, 52, 21, 62, 214, 76, 240, 61, 74, 195, 218, 189, 104, 112, 141, 60, 78, 231, 45, 189, 226, 241, 141, 189, 248, 211, 57, 60, 73, 22, 203, 61, 60, 105, 29, 60, 128, 131, 79, 60, 117, 182, 84, 62, 209, 222, 246, 189, 24, 49, 40, 189, 250, 95, 186, 61, 117, 166, 183, 189, 131, 155, 32, 189, 176, 63, 98, 189, 157, 147, 211, 59, 4, 241, 166, 188, 228, 214, 79, 62, 217, 131, 164, 188, 210, 104, 214, 189, 83, 247, 236, 189, 236, 56, 177, 189, 76, 207, 156, 188, 203, 61, 33, 61, 52, 100, 55, 189, 87, 20, 166, 61, 205, 226, 69, 189, 35, 157, 196, 190, 216, 255, 101, 62, 132, 241, 199, 61, 224, 131, 149, 187, 38, 15, 158, 60, 236, 46, 247, 188, 163, 24, 49, 61, 116, 217, 35, 61, 147, 113, 9, 190, 5, 63, 98, 62, 174, 147, 104, 60, 47, 156, 116, 190, 55, 10, 104, 61, 61, 49, 116, 189, 134, 119, 146, 188, 50, 187, 139, 189, 156, 96, 235, 190, 252, 68, 150, 60, 205, 180, 174, 61, 247, 228, 228, 187, 251, 133, 8, 62, 57, 16, 173, 188, 58, 169, 67, 190, 235, 147, 55, 190, 242, 71, 87, 189, 2, 44, 48, 61, 62, 222, 51, 61, 29, 102, 157, 189, 187, 85, 126, 61, 252, 165, 35, 188, 162, 62, 234, 61, 238, 50, 143, 60, 130, 115, 142, 61, 208, 18, 230, 189, 169, 101, 163, 61, 159, 83, 82, 62, 169, 192, 113, 60, 179, 228, 124, 62, 69, 25, 39, 189, 172, 22, 77, 190, 119, 135, 22, 61, 74, 228, 2, 61, 130, 134, 166, 189, 167, 28, 157, 61, 112, 241, 141, 59, 123, 78, 113, 62, 223, 230, 6, 190, 211, 215, 53, 62, 188, 210, 211, 61, 204, 169, 141, 190, 91, 86, 253, 59, 6, 132, 71, 189, 201, 135, 210, 60, 35, 163, 47, 189, 151, 250, 240, 61, 245, 87, 108, 62, 57, 147, 27, 62, 150, 113, 146, 189, 4, 183, 194, 189, 238, 107, 204, 59, 180, 135, 74, 189, 8, 173, 143, 60, 12, 146, 7, 190, 128, 155, 154, 190, 132, 45, 74, 190, 74, 128, 144, 62, 179, 110, 132, 58, 160, 128, 140, 59, 50, 126, 89, 190, 143, 27, 34, 189, 162, 120, 231, 189, 62, 192, 101, 189, 161, 123, 207, 61, 186, 224, 7, 62, 156, 28, 124, 61, 71, 255, 207, 189, 246, 202, 249, 61, 31, 151, 49, 60, 155, 101, 31, 60, 166, 134, 222, 188, 231, 135, 128, 190, 176, 35, 93, 61, 17, 98, 29, 62, 71, 249, 5, 62, 117, 242, 159, 190, 93, 246, 218, 189, 254, 41, 175, 61, 172, 76, 109, 190, 216, 242, 118, 189, 149, 23, 192, 60, 174, 205, 50, 62, 118, 16, 18, 62, 97, 24, 116, 61, 87, 238, 129, 189, 189, 64, 226, 61, 48, 49, 15, 61, 28, 244, 29, 189, 115, 106, 178, 62, 96, 158, 177, 61, 211, 24, 4, 190, 74, 192, 177, 186, 6, 26, 111, 62, 26, 209, 44, 61, 186, 44, 147, 62, 205, 158, 217, 60, 99, 97, 140, 189, 86, 90, 251, 61, 20, 67, 50, 61, 32, 88, 69, 187, 113, 112, 200, 61, 78, 83, 96, 62, 50, 240, 12, 187, 249, 240, 231, 188, 42, 232, 1, 60, 176, 117, 147, 61, 17, 105, 185, 61, 101, 223, 117, 189, 92, 33, 124, 61, 215, 127, 164, 187, 166, 74, 175, 188, 201, 43, 49, 62, 171, 163, 144, 58, 249, 24, 126, 188, 118, 82, 151, 188, 110, 20, 138, 61, 176, 213, 222, 189, 128, 51, 101, 61, 57, 67, 48, 60, 102, 157, 37, 190, 114, 141, 119, 60, 145, 67, 124, 60, 250, 184, 113, 189, 150, 45, 129, 62, 62, 132, 83, 60, 50, 134, 177, 189, 192, 52, 14, 188, 225, 212, 184, 189, 60, 197, 131, 190, 113, 87, 143, 61, 237, 13, 128, 61, 154, 92, 56, 190, 103, 203, 193, 61, 241, 152, 141, 61, 94, 18, 50, 189, 228, 250, 138, 61, 179, 230, 49, 188, 60, 196, 32, 190, 192, 54, 197, 185, 201, 243, 100, 190, 65, 86, 130, 189, 165, 179, 190, 61, 75, 152, 230, 189, 77, 122, 64, 189, 144, 133, 228, 60, 145, 5, 102, 60, 120, 126, 222, 188, 106, 192, 86, 61, 80, 146, 178, 60, 80, 47, 33, 61, 108, 4, 176, 190, 38, 96, 148, 59, 38, 18, 231, 189, 154, 137, 213, 61, 244, 28, 151, 188, 66, 128, 101, 190, 28, 157, 129, 61, 244, 247, 125, 189, 186, 46, 210, 61, 188, 199, 94, 61, 60, 184, 138, 59, 121, 135, 103, 189, 153, 134, 221, 188, 240, 254, 116, 61, 34, 94, 149, 190, 198, 220, 12, 190, 227, 8, 133, 190, 215, 33, 72, 188, 208, 155, 33, 190, 233, 113, 18, 189, 129, 168, 184, 60, 179, 75, 189, 61, 168, 117, 83, 188, 185, 109, 153, 188, 249, 58, 112, 61, 151, 83, 158, 61, 116, 3, 167, 56, 20, 84, 5, 189, 182, 202, 117, 188, 100, 206, 158, 62, 193, 245, 182, 60, 87, 24, 249, 189, 74, 173, 243, 189, 246, 79, 183, 189, 243, 30, 32, 190, 132, 184, 38, 186, 168, 231, 110, 61, 168, 241, 6, 189, 191, 233, 36, 189, 58, 138, 60, 62, 60, 133, 131, 61, 37, 161, 152, 61, 0, 122, 86, 61, 200, 40, 80, 60, 56, 152, 0, 190, 23, 76, 47, 190, 195, 78, 26, 62, 62, 133, 20, 189, 156, 237, 44, 61, 96, 251, 167, 189, 125, 5, 26, 189, 213, 82, 10, 62, 162, 218, 151, 61, 76, 46, 29, 62, 11, 60, 32, 189, 205, 1, 32, 62, 87, 228, 54, 190, 20, 114, 214, 60, 224, 186, 100, 61, 194, 59, 222, 187, 135, 164, 134, 189, 180, 240, 158, 190, 7, 36, 135, 189, 48, 244, 195, 60, 173, 226, 6, 189, 168, 52, 37, 61, 10, 149, 149, 61, 14, 241, 204, 61, 136, 199, 210, 61, 110, 109, 199, 61, 168, 147, 138, 62, 94, 136, 131, 61, 210, 202, 244, 188, 207, 252, 195, 186, 195, 145, 26, 61, 171, 86, 222, 60, 119, 4, 224, 186, 224, 92, 169, 188, 144, 229, 98, 61, 204, 221, 20, 60, 251, 33, 44, 62, 242, 96, 41, 62, 180, 222, 107, 190, 153, 232, 156, 61, 182, 69, 60, 190, 143, 48, 15, 189, 88, 169, 32, 60, 62, 180, 157, 62, 157, 189, 61, 59, 142, 208, 174, 61, 180, 102, 135, 188, 42, 121, 238, 60, 68, 21, 20, 60, 158, 254, 116, 190, 127, 108, 57, 61, 101, 166, 60, 190, 190, 1, 112, 190, 168, 142, 111, 61, 116, 137, 138, 189, 207, 240, 243, 61, 200, 1, 192, 187, 106, 116, 253, 189, 4, 247, 23, 189, 213, 253, 246, 189, 28, 215, 106, 61, 153, 220, 35, 189, 164, 88, 47, 62, 123, 228, 144, 61, 200, 149, 161, 190, 79, 241, 99, 189, 18, 96, 4, 190, 157, 127, 37, 61, 107, 3, 83, 61, 11, 160, 51, 191, 85, 53, 65, 61, 128, 196, 158, 62, 16, 179, 115, 60, 51, 126, 175, 189, 95, 49, 155, 59, 35, 3, 83, 189, 116, 217, 141, 190, 255, 19, 82, 189, 116, 254, 134, 61, 194, 120, 222, 186, 100, 107, 147, 61, 127, 10, 156, 190, 142, 11, 25, 189, 119, 0, 197, 62, 24, 133, 212, 189, 1, 137, 131, 188, 66, 229, 68, 60, 236, 246, 167, 61, 124, 53, 14, 62, 85, 145, 169, 61, 105, 143, 199, 62, 196, 7, 5, 61, 95, 122, 227, 189, 171, 121, 182, 60, 69, 56, 235, 60, 171, 214, 199, 189, 169, 219, 25, 189, 252, 79, 136, 188, 120, 241, 216, 61, 111, 165, 19, 61, 104, 198, 171, 190, 180, 108, 196, 61, 108, 138, 38, 60, 107, 166, 193, 60, 81, 216, 201, 190, 168, 235, 2, 189, 125, 30, 136, 189, 158, 60, 227, 61, 214, 217, 121, 61, 80, 217, 93, 62, 35, 75, 247, 189, 14, 141, 192, 61, 115, 62, 2, 189, 135, 160, 72, 190, 37, 79, 61, 61, 28, 18, 64, 190, 17, 139, 66, 190, 156, 163, 5, 62, 16, 179, 146, 61, 19, 252, 140, 61, 173, 4, 3, 189, 228, 162, 39, 190, 203, 112, 10, 60, 34, 137, 33, 191, 55, 67, 59, 189, 143, 238, 151, 190, 173, 77, 159, 61, 170, 112, 73, 60, 216, 168, 40, 190, 210, 34, 134, 190, 204, 182, 137, 190, 127, 147, 86, 61, 159, 117, 66, 188, 173, 217, 32, 191, 246, 132, 41, 189, 235, 154, 139, 61, 32, 102, 248, 60, 78, 56, 0, 61, 5, 87, 88, 60, 116, 244, 109, 190, 153, 7, 55, 189, 224, 108, 44, 188, 53, 73, 61, 189, 55, 173, 159, 61, 34, 216, 209, 61, 14, 23, 74, 60, 84, 148, 149, 189, 215, 42, 28, 60, 164, 51, 13, 188, 69, 137, 22, 61, 183, 78, 139, 60, 45, 212, 136, 61, 34, 110, 23, 62, 223, 253, 51, 62, 57, 191, 53, 60, 48, 63, 74, 60, 19, 96, 61, 189, 122, 191, 147, 189, 29, 177, 17, 189, 235, 241, 228, 61, 171, 180, 43, 61, 83, 207, 95, 189, 125, 248, 241, 61, 130, 68, 73, 189, 254, 245, 218, 190, 60, 89, 148, 60, 189, 220, 153, 189, 35, 103, 27, 61, 182, 5, 81, 190, 126, 34, 88, 188, 240, 192, 87, 188, 81, 172, 129, 189, 17, 5, 202, 61, 71, 9, 166, 189, 122, 20, 177, 189, 228, 183, 32, 59, 252, 140, 47, 189, 163, 190, 150, 189, 11, 212, 4, 61, 158, 60, 107, 61, 232, 207, 48, 188, 87, 82, 137, 61, 127, 254, 141, 61, 130, 5, 251, 61, 17, 78, 21, 189, 170, 162, 11, 190, 163, 235, 56, 61, 4, 152, 174, 189, 5, 100, 129, 189, 9, 131, 7, 62, 83, 205, 45, 60, 127, 234, 18, 57, 9, 213, 144, 189, 77, 190, 86, 62, 66, 220, 31, 190, 148, 1, 86, 61, 237, 196, 46, 60, 81, 114, 118, 189, 63, 114, 132, 61, 123, 204, 198, 188, 171, 245, 200, 61, 190, 25, 106, 61, 0, 54, 44, 189, 172, 182, 25, 190, 244, 125, 190, 189, 177, 209, 134, 60, 40, 159, 59, 189, 124, 199, 141, 188, 125, 234, 4, 62, 188, 46, 116, 190, 14, 117, 132, 189, 109, 238, 185, 189, 90, 148, 59, 190, 204, 99, 138, 61, 62, 190, 210, 189, 146, 132, 205, 61, 145, 246, 248, 61, 72, 89, 183, 190, 204, 31, 125, 187, 68, 78, 142, 60, 204, 208, 140, 62, 85, 207, 5, 61, 88, 218, 5, 61, 211, 143, 54, 62, 129, 173, 110, 61, 192, 144, 136, 187, 145, 76, 199, 190, 12, 205, 2, 189, 128, 248, 160, 189, 44, 162, 77, 189, 104, 153, 76, 62, 213, 47, 160, 189, 193, 59, 229, 190, 150, 205, 157, 61, 4, 255, 94, 188, 175, 243, 139, 62, 138, 51, 43, 62, 139, 244, 212, 187, 252, 36, 5, 62, 226, 137, 137, 61, 134, 254, 72, 61, 84, 156, 183, 61, 112, 103, 221, 188, 200, 141, 226, 61, 11, 174, 93, 62, 48, 151, 162, 61, 218, 66, 7, 188, 55, 139, 150, 61, 194, 213, 67, 61, 149, 195, 81, 61, 118, 131, 140, 189, 236, 100, 108, 189, 68, 35, 222, 188, 44, 71, 17, 190, 148, 18, 64, 62, 20, 103, 142, 189, 157, 21, 33, 62, 70, 25, 86, 190, 152, 179, 96, 190, 154, 100, 66, 189, 122, 197, 7, 61, 159, 202, 146, 60, 132, 100, 203, 188, 126, 125, 222, 189, 74, 88, 235, 61, 36, 209, 222, 188, 121, 99, 50, 61, 217, 70, 169, 59, 12, 59, 200, 61, 140, 167, 95, 61, 146, 20, 141, 189, 243, 19, 40, 190, 222, 163, 89, 62, 64, 193, 6, 189, 119, 3, 26, 189, 0, 52, 224, 60, 243, 78, 215, 187, 45, 174, 116, 188, 109, 36, 62, 62, 232, 244, 235, 61, 187, 189, 216, 189, 247, 220, 191, 189, 75, 140, 225, 60, 2, 2, 35, 61, 24, 21, 158, 61, 194, 238, 34, 61, 185, 161, 102, 188, 39, 59, 102, 60, 175, 199, 236, 58, 52, 68, 101, 61, 214, 203, 235, 188, 102, 246, 59, 61, 95, 144, 40, 190, 156, 133, 32, 62, 208, 37, 149, 61, 116, 90, 139, 189, 56, 50, 146, 190, 68, 210, 19, 62, 80, 111, 99, 61, 85, 74, 48, 62, 114, 229, 41, 190, 179, 141, 126, 189, 31, 209, 224, 61, 138, 20, 28, 61, 69, 9, 2, 189, 205, 164, 162, 188, 44, 79, 6, 189, 212, 222, 52, 190, 191, 162, 181, 188, 135, 1, 166, 189, 85, 224, 70, 190, 46, 53, 190, 61, 224, 153, 78, 187, 10, 201, 141, 61, 67, 183, 121, 61, 204, 89, 111, 190, 204, 109, 225, 60, 84, 129, 30, 190, 190, 209, 38, 62, 166, 97, 91, 189, 34, 112, 230, 189, 215, 37, 157, 190, 68, 140, 45, 190, 202, 184, 127, 189, 176, 119, 38, 61, 200, 235, 112, 190, 71, 114, 229, 60, 22, 107, 164, 190, 28, 158, 171, 61, 190, 247, 56, 189, 178, 223, 101, 61, 34, 120, 217, 190, 50, 185, 150, 62, 56, 47, 56, 189, 196, 145, 132, 188, 153, 191, 192, 61, 226, 107, 121, 62, 150, 153, 181, 61, 160, 70, 10, 61, 22, 73, 167, 61, 183, 100, 234, 59, 141, 14, 47, 189, 47, 35, 53, 189, 64, 50, 237, 61, 224, 204, 49, 190, 148, 5, 204, 61, 152, 173, 61, 190, 212, 233, 100, 189, 62, 65, 84, 62, 144, 179, 11, 189, 49, 30, 216, 188, 220, 18, 235, 61, 239, 44, 15, 61, 194, 221, 0, 61, 25, 37, 202, 187, 150, 118, 100, 62, 174, 220, 56, 190, 74, 158, 128, 62, 57, 226, 68, 62, 244, 211, 141, 61, 72, 255, 228, 190, 10, 106, 117, 62, 156, 206, 14, 61, 6, 252, 195, 189, 250, 236, 198, 190, 16, 239, 71, 190, 225, 240, 184, 61, 177, 120, 159, 189, 239, 139, 105, 61, 226, 55, 86, 190, 231, 209, 100, 61, 183, 191, 27, 189, 68, 115, 209, 61, 96, 181, 176, 190, 66, 38, 8, 190, 80, 43, 178, 60, 52, 38, 240, 188, 102, 189, 208, 187, 33, 76, 76, 187, 20, 28, 245, 188, 178, 255, 98, 189, 192, 23, 115, 190, 1, 56, 180, 61, 100, 240, 118, 61, 113, 125, 130, 190, 219, 195, 27, 191, 123, 249, 58, 190, 21, 154, 69, 61, 54, 36, 147, 59, 218, 118, 184, 190, 169, 216, 30, 61, 213, 68, 207, 190, 225, 109, 49, 61, 251, 13, 45, 189, 243, 205, 201, 61, 26, 194, 193, 61, 1, 42, 138, 62, 40, 72, 78, 189, 68, 62, 253, 60, 202, 105, 144, 190, 176, 55, 253, 62, 105, 63, 238, 61, 184, 106, 82, 60, 128, 83, 189, 189, 79, 113, 219, 61, 57, 81, 162, 188, 132, 31, 210, 187, 187, 112, 212, 61, 94, 140, 236, 61, 141, 217, 112, 60, 206, 49, 131, 190, 118, 105, 183, 60, 9, 191, 49, 61, 122, 38, 8, 61, 224, 9, 130, 61, 123, 66, 215, 61, 182, 245, 12, 61, 4, 38, 92, 61, 109, 198, 57, 62, 124, 1, 103, 188, 252, 95, 207, 60, 166, 120, 170, 61, 58, 86, 161, 62, 56, 234, 40, 61, 178, 220, 197, 190, 219, 11, 176, 62, 30, 150, 134, 61, 243, 199, 82, 62, 180, 144, 119, 62, 54, 172, 217, 190, 46, 119, 11, 62, 57, 125, 219, 59, 42, 144, 242, 59, 212, 189, 42, 61, 200, 221, 12, 62, 219, 219, 134, 62, 171, 47, 125, 62, 217, 68, 144, 189, 215, 251, 111, 190, 19, 255, 123, 61, 160, 152, 22, 60, 163, 62, 17, 61, 189, 11, 53, 61, 97, 72, 214, 189, 186, 10, 41, 189, 111, 15, 20, 189, 127, 239, 102, 62, 13, 83, 31, 61, 123, 63, 87, 188, 151, 6, 25, 189, 191, 174, 60, 62, 127, 35, 119, 188, 164, 161, 123, 189, 143, 250, 150, 190, 126, 145, 19, 61, 146, 30, 151, 58, 189, 19, 60, 61, 158, 93, 12, 190, 71, 113, 14, 61, 41, 80, 163, 189, 98, 230, 131, 60, 112, 217, 167, 187, 36, 61, 118, 61, 234, 94, 70, 188, 59, 63, 202, 59, 203, 129, 230, 187, 64, 107, 233, 60, 214, 80, 195, 189, 200, 171, 30, 60, 198, 165, 139, 61, 202, 248, 134, 189, 224, 105, 63, 60, 161, 240, 220, 188, 100, 10, 240, 60, 47, 203, 60, 189, 204, 10, 164, 188, 40, 161, 17, 188, 44, 192, 217, 60, 68, 228, 223, 60, 37, 102, 6, 61, 204, 77, 20, 189, 125, 106, 78, 189, 224, 107, 118, 187, 66, 218, 208, 60, 176, 65, 23, 61, 140, 150, 77, 61, 74, 11, 120, 188, 88, 124, 122, 188, 153, 171, 154, 189, 215, 225, 147, 189, 102, 114, 144, 189, 234, 94, 32, 189, 82, 31, 116, 59, 195, 236, 96, 189, 127, 4, 248, 188, 50, 158, 153, 188, 46, 67, 138, 189, 21, 182, 9, 189, 180, 74, 88, 189, 142, 238, 156, 189, 0, 14, 75, 60, 42, 88, 129, 189, 247, 32, 17, 61, 220, 178, 215, 60, 192, 205, 65, 187, 65, 59, 26, 189, 224, 192, 69, 60, 96, 249, 188, 188, 192, 177, 129, 188, 154, 198, 126, 61, 232, 9, 238, 59, 208, 116, 208, 60, 55, 177, 75, 61, 230, 107, 103, 189, 176, 255, 104, 188, 128, 38, 95, 189, 101, 100, 8, 189, 59, 5, 30, 61, 188, 104, 243, 60, 224, 74, 112, 189, 25, 62, 70, 189, 95, 120, 188, 189, 63, 173, 236, 188, 61, 95, 71, 189, 59, 188, 88, 61, 24, 64, 135, 60, 196, 208, 69, 188, 59, 235, 247, 60, 96, 84, 9, 61, 39, 186, 15, 188, 126, 241, 68, 189, 115, 227, 44, 58, 128, 28, 63, 189, 112, 1, 18, 60, 51, 56, 144, 189, 222, 162, 99, 189, 86, 89, 168, 189, 169, 13, 127, 189, 174, 128, 215, 60, 144, 154, 214, 60, 116, 52, 90, 189, 208, 89, 86, 60, 100, 148, 88, 61, 81, 225, 34, 189, 226, 148, 132, 61, 148, 234, 246, 60, 78, 156, 30, 61, 233, 245, 105, 189, 200, 99, 244, 188, 17, 64, 6, 189, 238, 53, 132, 61, 168, 138, 143, 61, 30, 195, 63, 189, 186, 121, 89, 189, 44, 70, 133, 189, 102, 10, 40, 188, 239, 12, 196, 189, 197, 171, 97, 189, 147, 96, 134, 189, 202, 33, 57, 189, 188, 186, 148, 188, 114, 197, 32, 187, 76, 200, 131, 189, 32, 231, 166, 189, 199, 29, 196, 189, 132, 214, 124, 189, 224, 20, 144, 189, 128, 35, 254, 60, 144, 57, 11, 189, 173, 188, 31, 189, 40, 161, 26, 61, 192, 25, 34, 189, 0, 48, 99, 184, 51, 156, 184, 188, 34, 222, 194, 189, 236, 67, 170, 60, 19, 99, 87, 188, 123, 220, 123, 189, 135, 161, 239, 60, 26, 25, 137, 61, 104, 191, 17, 188, 74, 228, 20, 61, 64, 149, 242, 187, 224, 131, 166, 186, 0, 55, 110, 186, 162, 41, 132, 61, 54, 95, 147, 189, 125, 246, 135, 189, 83, 66, 56, 189, 193, 141, 17, 189, 145, 139, 12, 189, 54, 148, 55, 61, 160, 8, 55, 60, 251, 117, 248, 60, 32, 80, 0, 189, 145, 111, 137, 189, 136, 239, 227, 188, 67, 230, 85, 189, 52, 136, 88, 61, 224, 3, 244, 187, 193, 117, 138, 189, 176, 124, 194, 187, 54, 139, 10, 189, 72, 206, 130, 188, 214, 34, 101, 188, 192, 56, 207, 58, 136, 145, 50, 189, 252, 170, 68, 189, 61, 40, 133, 189, 144, 166, 43, 61, 64, 107, 186, 186, 182, 217, 110, 189, 19, 142, 43, 61, 236, 17, 61, 189, 152, 235, 15, 188, 122, 248, 142, 61, 15, 155, 171, 188, 79, 15, 246, 59, 170, 165, 28, 61, 62, 223, 105, 188, 99, 159, 219, 189, 164, 166, 148, 60, 123, 229, 140, 189, 34, 134, 100, 189, 70, 61, 179, 188, 62, 254, 112, 61, 41, 86, 110, 189, 90, 162, 2, 61, 204, 23, 206, 60, 189, 43, 85, 61, 185, 254, 35, 61, 164, 122, 196, 60, 84, 75, 145, 60, 195, 83, 11, 61, 94, 90, 18, 61, 159, 134, 6, 61, 84, 179, 93, 61, 220, 47, 247, 60, 72, 153, 125, 60, 1, 26, 32, 189, 6, 12, 58, 60, 92, 1, 142, 184, 15, 151, 112, 187, 118, 13, 144, 61, 108, 162, 127, 61, 104, 58, 112, 60, 106, 155, 229, 188, 72, 176, 250, 60, 72, 103, 76, 60, 218, 63, 119, 189, 114, 228, 20, 61, 17, 49, 54, 188, 41, 48, 135, 189, 144, 45, 132, 60, 76, 134, 97, 61, 90, 185, 140, 189, 10, 9, 21, 189, 117, 221, 96, 61, 160, 166, 33, 61, 146, 71, 188, 188, 109, 63, 10, 189, 144, 27, 176, 187, 172, 246, 164, 187, 124, 152, 72, 188, 255, 186, 64, 188, 12, 168, 56, 61, 121, 27, 105, 187, 64, 161, 230, 59, 241, 107, 151, 189, 34, 213, 103, 189, 240, 62, 91, 61, 186, 165, 157, 189, 52, 179, 135, 60, 148, 187, 124, 61, 166, 161, 63, 189, 112, 110, 202, 59, 98, 141, 47, 61, 239, 179, 218, 59, 137, 75, 78, 189, 240, 214, 221, 187, 51, 235, 206, 189, 85, 153, 38, 189, 152, 24, 130, 61, 164, 248, 33, 60, 150, 253, 177, 189, 187, 119, 68, 189, 15, 21, 39, 61, 62, 213, 152, 60, 202, 126, 134, 61, 144, 26, 68, 60, 48, 18, 168, 187, 135, 225, 72, 188, 195, 23, 146, 58, 86, 61, 43, 188, 121, 89, 19, 60, 191, 221, 85, 189, 162, 75, 179, 188, 100, 106, 121, 61, 58, 247, 11, 61, 98, 138, 134, 189, 216, 79, 12, 188, 177, 36, 151, 189, 225, 114, 230, 60, 212, 130, 114, 61, 191, 201, 201, 60, 86, 58, 141, 189, 83, 221, 90, 189, 88, 74, 115, 61, 74, 81, 38, 61, 145, 50, 79, 188, 224, 96, 4, 188, 13, 118, 7, 189, 194, 72, 135, 61, 36, 110, 103, 61, 93, 147, 5, 189, 118, 81, 26, 61, 28, 135, 234, 58, 224, 89, 116, 187, 162, 193, 162, 188, 88, 251, 61, 61, 106, 22, 121, 187, 210, 92, 33, 60, 177, 164, 51, 189, 4, 32, 164, 189, 240, 93, 122, 61, 90, 103, 29, 61, 165, 86, 177, 59, 244, 124, 64, 61, 247, 52, 119, 189, 64, 173, 189, 60, 1, 74, 168, 60, 8, 219, 252, 60, 244, 251, 104, 189, 152, 119, 88, 60, 241, 149, 37, 189, 144, 56, 200, 189, 219, 110, 32, 189, 210, 128, 128, 189, 118, 215, 124, 189, 84, 209, 29, 188, 77, 208, 148, 188, 143, 177, 138, 59, 217, 124, 46, 61, 156, 61, 216, 60, 226, 86, 34, 61, 129, 15, 212, 59, 240, 49, 41, 189, 103, 229, 109, 188, 177, 155, 157, 189, 178, 152, 255, 188, 119, 200, 20, 60, 116, 114, 114, 189, 152, 153, 79, 189, 23, 248, 109, 189, 20, 247, 88, 61, 54, 129, 186, 188, 199, 117, 166, 189, 144, 99, 127, 188, 142, 41, 203, 188, 208, 41, 213, 60, 240, 41, 137, 60, 117, 148, 130, 188, 0, 198, 227, 185, 243, 86, 132, 189, 230, 130, 81, 189, 146, 99, 122, 189, 168, 121, 243, 58, 0, 139, 49, 61, 43, 134, 51, 189, 135, 89, 202, 188, 222, 220, 129, 188, 164, 168, 46, 189, 111, 219, 135, 189, 137, 94, 124, 60, 16, 71, 111, 60, 132, 247, 149, 189, 200, 128, 196, 60, 6, 216, 129, 189, 249, 252, 208, 188, 140, 125, 134, 60, 68, 19, 17, 61, 8, 154, 238, 188, 48, 19, 192, 188, 241, 206, 94, 189, 176, 120, 179, 60, 125, 213, 133, 189, 48, 185, 210, 60, 176, 37, 159, 189, 31, 249, 93, 189, 162, 126, 168, 188, 253, 180, 146, 188, 154, 251, 255, 188, 135, 98, 103, 188, 68, 250, 197, 60, 135, 221, 218, 189, 70, 221, 81, 189, 14, 245, 192, 189, 216, 191, 163, 60, 96, 69, 26, 187, 71, 179, 204, 189, 179, 11, 37, 189, 94, 3, 168, 188, 8, 214, 189, 60, 25, 29, 4, 60, 118, 174, 39, 59, 202, 60, 197, 189, 84, 120, 190, 60, 168, 82, 79, 60, 230, 133, 172, 189, 5, 98, 163, 60, 220, 140, 52, 61, 69, 57, 250, 188, 1, 140, 128, 189, 125, 8, 197, 60, 121, 54, 194, 189, 44, 12, 29, 61, 24, 252, 25, 60, 175, 9, 76, 189, 196, 115, 160, 60, 126, 247, 198, 189, 92, 247, 246, 188, 191, 255, 33, 189, 230, 50, 3, 189, 204, 179, 87, 188, 232, 35, 105, 189, 120, 225, 158, 60, 110, 46, 86, 189, 194, 214, 166, 60, 188, 103, 58, 188, 251, 220, 69, 61, 32, 187, 71, 189, 136, 131, 137, 60, 83, 224, 104, 61, 109, 4, 161, 188, 204, 171, 117, 189, 64, 24, 168, 59, 131, 233, 63, 189, 205, 135, 117, 189, 196, 103, 35, 61, 173, 52, 113, 60, 24, 70, 139, 61, 165, 23, 27, 189, 106, 87, 176, 187, 241, 215, 210, 188, 32, 43, 152, 188, 208, 35, 117, 188, 0, 5, 149, 59, 92, 195, 148, 189, 197, 216, 26, 61, 103, 208, 11, 186, 200, 198, 182, 60, 156, 121, 151, 189, 255, 174, 33, 189, 171, 30, 147, 189, 250, 73, 21, 61, 108, 179, 143, 61, 155, 77, 56, 189, 242, 88, 67, 61, 5, 238, 182, 188, 208, 136, 91, 61, 19, 155, 8, 61, 48, 240, 224, 59, 208, 56, 104, 60, 213, 10, 101, 189, 0, 128, 137, 188, 196, 86, 80, 61, 51, 205, 6, 189, 58, 126, 146, 189, 197, 191, 160, 60, 22, 25, 205, 188, 193, 136, 166, 188, 4, 8, 216, 60, 197, 217, 87, 189, 119, 171, 38, 61, 170, 190, 12, 61, 13, 202, 68, 60, 246, 105, 22, 189, 45, 125, 160, 189, 195, 103, 183, 189, 82, 113, 95, 61, 68, 115, 191, 60, 178, 226, 57, 60, 143, 239, 143, 189, 178, 60, 131, 57, 65, 192, 116, 189, 136, 187, 82, 189, 13, 188, 244, 60, 45, 183, 41, 189, 205, 235, 10, 189, 134, 14, 93, 60, 168, 59, 191, 188, 225, 29, 215, 189, 208, 209, 246, 187, 50, 171, 161, 189, 184, 209, 190, 189, 178, 133, 56, 61, 88, 115, 197, 188, 60, 251, 34, 61, 27, 146, 99, 189, 140, 158, 128, 189, 57, 128, 145, 189, 14, 109, 207, 60, 170, 109, 140, 61, 22, 45, 9, 61, 174, 60, 1, 61, 201, 111, 209, 189, 205, 15, 53, 61, 216, 8, 91, 189, 225, 42, 44, 189, 112, 152, 75, 188, 2, 126, 250, 188, 199, 231, 44, 61, 119, 245, 145, 189, 82, 231, 16, 61, 16, 13, 123, 189, 9, 125, 128, 61, 196, 224, 225, 188, 44, 64, 230, 60, 64, 98, 78, 61, 40, 192, 82, 61, 131, 97, 22, 189, 182, 235, 129, 61, 145, 83, 47, 189, 236, 82, 139, 61, 91, 175, 10, 189, 148, 39, 36, 61, 52, 137, 143, 188, 177, 118, 155, 189, 149, 135, 15, 189, 2, 197, 9, 61, 32, 199, 191, 59, 156, 84, 9, 189, 63, 237, 92, 60, 79, 162, 193, 60, 126, 28, 148, 188, 168, 143, 36, 188, 222, 166, 71, 189, 222, 60, 51, 61, 30, 65, 27, 61, 169, 214, 176, 60, 72, 147, 220, 59, 126, 4, 201, 60, 172, 145, 103, 186, 51, 216, 170, 60, 59, 36, 2, 189, 49, 67, 34, 61, 190, 106, 143, 61, 84, 145, 140, 187, 110, 30, 137, 189, 128, 46, 158, 189, 89, 9, 90, 188, 212, 148, 133, 61, 167, 96, 101, 189, 22, 1, 171, 189, 40, 141, 113, 60, 225, 34, 176, 60, 230, 98, 161, 188, 161, 165, 163, 60, 86, 50, 111, 59, 224, 124, 63, 60, 233, 131, 71, 187, 210, 138, 41, 188, 96, 40, 108, 61, 250, 226, 146, 61, 70, 80, 133, 61, 233, 75, 54, 188, 128, 247, 228, 58, 151, 73, 71, 60, 10, 246, 249, 188, 53, 87, 106, 188, 236, 4, 141, 189, 77, 31, 127, 61, 174, 71, 11, 188, 140, 118, 135, 61, 31, 131, 137, 189, 176, 123, 44, 61, 38, 138, 55, 189, 237, 117, 149, 189, 208, 15, 215, 59, 166, 221, 200, 188, 47, 163, 12, 189, 0, 214, 109, 61, 116, 103, 21, 188, 176, 18, 196, 60, 95, 249, 230, 60, 14, 205, 146, 189, 207, 199, 241, 59, 80, 158, 86, 61, 171, 93, 204, 187, 186, 250, 132, 189, 84, 110, 251, 60, 223, 103, 128, 188, 140, 114, 137, 60, 86, 179, 46, 189, 96, 21, 35, 187, 243, 120, 24, 187, 234, 233, 78, 188, 146, 32, 157, 60, 96, 210, 34, 189, 212, 3, 77, 189, 192, 98, 129, 188, 159, 149, 134, 189, 32, 132, 27, 60, 241, 93, 170, 188, 148, 162, 66, 60, 180, 165, 49, 188, 101, 84, 2, 189, 54, 210, 23, 61, 148, 150, 221, 188, 196, 221, 204, 189, 44, 19, 109, 61, 31, 165, 136, 186, 185, 197, 152, 189, 1, 115, 221, 188, 136, 151, 179, 187, 28, 160, 107, 189, 120, 155, 1, 61, 177, 107, 20, 61, 54, 14, 167, 188, 239, 74, 197, 57, 190, 126, 176, 188, 0, 90, 31, 61, 24, 33, 187, 188, 160, 174, 36, 60, 208, 217, 131, 189, 108, 21, 97, 189, 181, 172, 43, 61, 58, 116, 68, 61, 198, 210, 156, 188, 207, 60, 130, 189, 234, 99, 96, 189, 13, 30, 199, 188, 59, 124, 114, 189, 117, 161, 75, 188, 175, 83, 67, 189, 232, 102, 109, 61, 159, 17, 201, 189, 96, 136, 171, 187, 180, 108, 147, 61, 94, 245, 43, 60, 179, 148, 129, 189, 188, 49, 201, 189, 16, 117, 105, 189, 105, 146, 140, 187, 110, 82, 15, 189, 64, 183, 12, 188, 97, 208, 147, 188, 58, 14, 65, 189, 211, 66, 102, 189, 230, 109, 74, 61, 46, 225, 150, 60, 160, 250, 37, 59, 252, 66, 40, 61, 128, 67, 100, 61, 253, 237, 92, 189, 51, 204, 107, 188, 18, 178, 45, 61, 42, 168, 43, 61, 224, 56, 131, 60, 183, 254, 94, 188, 127, 220, 40, 61, 130, 183, 69, 188, 229, 12, 41, 188, 32, 85, 152, 59, 111, 76, 133, 189, 64, 153, 65, 61, 164, 239, 241, 60, 179, 152, 188, 56, 17, 239, 61, 189, 80, 137, 188, 189, 212, 67, 245, 188, 1, 235, 116, 189, 4, 28, 13, 61, 203, 92, 2, 60, 48, 137, 177, 59, 90, 148, 93, 61, 103, 148, 45, 187, 2, 255, 86, 189, 67, 129, 130, 60, 96, 232, 103, 59, 64, 160, 206, 60, 104, 140, 154, 189, 131, 0, 59, 189, 112, 46, 6, 189, 226, 194, 131, 61, 125, 66, 141, 189, 95, 197, 154, 189, 186, 158, 40, 189, 7, 137, 106, 189, 6, 122, 87, 189, 7, 238, 16, 61, 104, 134, 82, 60, 72, 200, 50, 60, 163, 255, 200, 189, 72, 207, 129, 61, 189, 223, 15, 61, 224, 1, 42, 60, 209, 75, 221, 189, 53, 248, 230, 188, 24, 93, 207, 60, 34, 226, 0, 58, 8, 194, 141, 60, 160, 160, 121, 59, 100, 207, 158, 189, 198, 26, 142, 59, 117, 78, 7, 61, 144, 249, 226, 187, 99, 182, 172, 189, 144, 11, 200, 187, 38, 10, 160, 188, 26, 158, 146, 189, 114, 127, 39, 61, 64, 245, 164, 189, 16, 178, 99, 60, 184, 212, 202, 188, 228, 50, 137, 60, 225, 218, 95, 189, 248, 112, 116, 60, 136, 167, 171, 60, 49, 236, 147, 187, 153, 246, 145, 189, 12, 204, 84, 61, 20, 204, 142, 61, 162, 64, 82, 60, 226, 7, 149, 189, 214, 201, 85, 60, 226, 207, 2, 61, 208, 239, 90, 61, 189, 54, 56, 189, 230, 70, 119, 189, 96, 225, 213, 188, 244, 200, 163, 189, 142, 211, 142, 189, 114, 239, 65, 188, 44, 80, 97, 189, 58, 144, 160, 189, 98, 233, 59, 189, 163, 210, 247, 60, 180, 117, 89, 188, 174, 210, 107, 59, 55, 228, 58, 61, 52, 242, 186, 60, 228, 217, 144, 189, 38, 203, 60, 61, 240, 175, 47, 60, 63, 58, 134, 189, 64, 225, 145, 58, 136, 159, 8, 61, 140, 23, 184, 60, 184, 178, 254, 60, 120, 130, 1, 189, 48, 213, 208, 59, 61, 101, 90, 186, 242, 117, 212, 189, 243, 228, 38, 60, 168, 251, 131, 189, 203, 251, 93, 189, 17, 108, 202, 60, 160, 158, 237, 187, 146, 210, 147, 60, 128, 152, 26, 59, 77, 31, 16, 189, 154, 17, 114, 61, 112, 183, 97, 61, 175, 154, 202, 188, 24, 96, 129, 61, 60, 183, 122, 189, 59, 170, 157, 189, 176, 195, 108, 61, 113, 216, 205, 188, 148, 86, 69, 188, 164, 90, 214, 188, 213, 5, 54, 189, 26, 106, 18, 189, 35, 199, 12, 61, 224, 153, 12, 61, 19, 22, 111, 188, 74, 235, 143, 61, 206, 193, 191, 189, 156, 55, 216, 60, 21, 112, 90, 61, 216, 158, 102, 61, 241, 9, 127, 189, 26, 25, 127, 61, 170, 214, 23, 189, 32, 43, 58, 189, 250, 46, 14, 61, 10, 27, 168, 60, 166, 202, 81, 189, 113, 80, 4, 189, 50, 54, 19, 61, 155, 4, 7, 189, 35, 25, 174, 188, 231, 90, 65, 61, 126, 86, 138, 189, 39, 122, 10, 185, 188, 107, 178, 189, 142, 138, 200, 189, 123, 4, 93, 189, 125, 177, 157, 60, 106, 149, 32, 189, 120, 236, 64, 61, 168, 213, 95, 61, 252, 219, 90, 189, 138, 38, 243, 188, 77, 155, 36, 189, 192, 172, 133, 59, 40, 136, 249, 60, 88, 202, 134, 60, 22, 64, 45, 61, 72, 87, 244, 60, 174, 156, 179, 189, 178, 145, 30, 189, 14, 156, 95, 61, 244, 62, 249, 60, 0, 241, 139, 189, 213, 139, 226, 188, 111, 228, 194, 189, 4, 27, 100, 61, 88, 203, 239, 188, 150, 72, 130, 189, 25, 209, 12, 61, 68, 246, 240, 188, 149, 26, 59, 189, 44, 90, 202, 188, 162, 202, 204, 60, 112, 55, 42, 60, 3, 83, 196, 188, 254, 195, 132, 189, 255, 115, 27, 189, 18, 181, 69, 61, 47, 127, 106, 189, 41, 238, 76, 60, 145, 28, 64, 189, 108, 82, 102, 61, 251, 11, 36, 61, 196, 183, 213, 188, 248, 193, 82, 60, 231, 76, 171, 59, 174, 84, 33, 61, 24, 174, 236, 59, 36, 89, 224, 188, 121, 89, 100, 188, 88, 226, 135, 189, 109, 78, 212, 189, 162, 113, 79, 61, 4, 129, 97, 189, 220, 151, 6, 61, 26, 67, 131, 61, 24, 102, 49, 60, 188, 62, 75, 61, 103, 117, 112, 189, 251, 48, 128, 187, 24, 11, 113, 189, 0, 57, 178, 60, 232, 9, 66, 60, 55, 161, 137, 189, 23, 198, 109, 61, 124, 242, 42, 61, 45, 173, 0, 61, 144, 40, 166, 189, 97, 179, 149, 189, 190, 240, 45, 189, 47, 233, 59, 59, 232, 164, 53, 189, 137, 71, 110, 61, 184, 89, 69, 189, 136, 190, 50, 60, 159, 140, 213, 60, 31, 228, 134, 60, 194, 230, 145, 189, 224, 166, 166, 187, 206, 244, 8, 61, 174, 173, 239, 60, 58, 14, 16, 61, 180, 92, 185, 188, 182, 97, 200, 188, 230, 85, 16, 189, 222, 73, 201, 189, 0, 9, 67, 187, 197, 7, 168, 60, 148, 64, 65, 189, 91, 105, 21, 189, 192, 72, 125, 59, 192, 78, 209, 59, 221, 81, 130, 61, 48, 111, 43, 61, 27, 157, 132, 189, 160, 70, 148, 59, 181, 11, 181, 189, 157, 48, 68, 189, 166, 203, 97, 61, 152, 110, 74, 189, 136, 