#ifndef EYE_MODEL_H
#define EYE_MODEL_H

const unsigned char eye_model[] = { 28, 0, 0, 0, 84, 70, 76, 51, 20, 0, 32, 0, 28, 0, 24, 0, 20, 0, 16, 0, 12, 0, 0, 0, 8, 0, 4, 0, 20, 0, 0, 0, 28, 0, 0, 0, 136, 0, 0, 0, 224, 0, 0, 0, 100, 44, 9, 0, 116, 44, 9, 0, 132, 54, 9, 0, 3, 0, 0, 0, 1, 0, 0, 0, 4, 0, 0, 0, 170, 210, 246, 255, 12, 0, 0, 0, 28, 0, 0, 0, 60, 0, 0, 0, 15, 0, 0, 0, 115, 101, 114, 118, 105, 110, 103, 95, 100, 101, 102, 97, 117, 108, 116, 0, 1, 0, 0, 0, 4, 0, 0, 0, 148, 255, 255, 255, 17, 0, 0, 0, 4, 0, 0, 0, 8, 0, 0, 0, 111, 117, 116, 112, 117, 116, 95, 48, 0, 0, 0, 0, 1, 0, 0, 0, 4, 0, 0, 0, 30, 213, 246, 255, 4, 0, 0, 0, 11, 0, 0, 0, 105, 110, 112, 117, 116, 95, 108, 97, 121, 101, 114, 0, 2, 0, 0, 0, 52, 0, 0, 0, 4, 0, 0, 0, 220, 255, 255, 255, 20, 0, 0, 0, 4, 0, 0, 0, 19, 0, 0, 0, 67, 79, 78, 86, 69, 82, 83, 73, 79, 78, 95, 77, 69, 84, 65, 68, 65, 84, 65, 0, 8, 0, 12, 0, 8, 0, 4, 0, 8, 0, 0, 0, 19, 0, 0, 0, 4, 0, 0, 0, 19, 0, 0, 0, 109, 105, 110, 95, 114, 117, 110, 116, 105, 109, 101, 95, 118, 101, 114, 115, 105, 111, 110, 0, 21, 0, 0, 0, 128, 43, 9, 0, 120, 43, 9, 0, 104, 42, 9, 0, 80, 10, 8, 0, 64, 8, 8, 0, 48, 8, 0, 0, 32, 6, 0, 0, 12, 6, 0, 0, 244, 5, 0, 0, 100, 1, 0, 0, 212, 0, 0, 0, 204, 0, 0, 0, 196, 0, 0, 0, 188, 0, 0, 0, 180, 0, 0, 0, 172, 0, 0, 0, 164, 0, 0, 0, 156, 0, 0, 0, 148, 0, 0, 0, 116, 0, 0, 0, 4, 0, 0, 0, 234, 213, 246, 255, 4, 0, 0, 0, 96, 0, 0, 0, 16, 0, 0, 0, 0, 0, 0, 0, 8, 0, 14, 0, 8, 0, 4, 0, 8, 0, 0, 0, 16, 0, 0, 0, 36, 0, 0, 0, 0, 0, 6, 0, 8, 0, 4, 0, 6, 0, 0, 0, 4, 0, 0, 0, 0, 0, 0, 0, 12, 0, 24, 0, 20, 0, 16, 0, 12, 0, 4, 0, 12, 0, 0, 0, 48, 212, 158, 28, 179, 77, 134, 21, 2, 0, 0, 0, 2, 0, 0, 0, 4, 0, 0, 0, 6, 0, 0, 0, 50, 46, 49, 56, 46, 48, 0, 0, 86, 214, 246, 255, 4, 0, 0, 0, 16, 0, 0, 0, 49, 46, 49, 52, 46, 48, 0, 0, 0, 0, 0, 0, 0, 0, 0, 0, 112, 203, 246, 255, 116, 203, 246, 255, 120, 203, 246, 255, 124, 203, 246, 255, 128, 203, 246, 255, 132, 203, 246, 255, 136, 203, 246, 255, 140, 203, 246, 255, 146, 214, 246, 255, 4, 0, 0, 0, 128, 0, 0, 0, 249, 122, 226, 189, 218, 145, 236, 189, 16, 154, 91, 62, 60, 149, 30, 190, 9, 160, 64, 62, 167, 209, 71, 60, 222, 226, 233, 61, 115, 183, 251, 61, 27, 226, 183, 60, 219, 21, 110, 62, 131, 64, 52, 190, 65, 67, 60, 61, 73, 102, 23, 190, 0, 0, 0, 0, 49, 56, 43, 190, 37, 242, 96, 189, 37, 123, 33, 62, 100, 247, 42, 62, 58, 50, 80, 190, 38, 77, 79, 190, 215, 197, 159, 61, 238, 144, 29, 190, 193, 170, 220, 61, 223, 31, 58, 190, 43, 94, 220, 61, 162, 119, 223, 61, 19, 165, 53, 189, 47, 176, 47, 62, 116, 99, 178, 61, 206, 146, 148, 58, 187, 178, 90, 190, 78, 48, 22, 190, 30, 215, 246, 255, 4, 0, 0, 0, 128, 4, 0, 0, 117, 15, 23, 190, 200, 127, 145, 190, 152, 35, 85, 190, 79, 45, 26, 62, 233, 109, 4, 62, 50, 23, 33, 62, 117, 177, 114, 62, 80, 115, 122, 62, 18, 16, 86, 62, 126, 87, 50, 62, 219, 195, 36, 62, 254, 175, 48, 62, 78, 88, 209, 61, 103, 20, 38, 62, 72, 151, 49, 62, 255, 45, 74, 190, 37, 207, 241, 189, 70, 139, 7, 190, 128, 86, 186, 61, 42, 218, 23, 61, 127, 162, 148, 190, 52, 92, 201, 61, 14, 5, 163, 189, 98, 207, 138, 190, 14, 171, 66, 61, 135, 51, 180, 190, 81, 121, 11, 62, 108, 35, 255, 188, 15, 206, 4, 190, 5, 41, 75, 190, 114, 177, 208, 61, 195, 86, 64, 61, 90, 81, 142, 184, 33, 61, 184, 189, 99, 13, 253, 61, 93, 17, 198, 61, 54, 198, 173, 61, 145, 172, 76, 62, 122, 28, 19, 190, 184, 231, 151, 61, 60, 47, 1, 62, 221, 110, 215, 190, 252, 144, 133, 188, 50, 239, 149, 190, 54, 13, 138, 190, 248, 139, 95, 62, 12, 14, 51, 190, 202, 45, 215, 190, 66, 217, 58, 62, 42, 98, 169, 62, 225, 240, 55, 190, 141, 192, 13, 189, 183, 20, 64, 62, 222, 143, 25, 190, 90, 16, 137, 190, 110, 76, 169, 189, 124, 119, 53, 62, 202, 126, 196, 190, 179, 110, 213, 61, 214, 232, 214, 61, 85, 219, 218, 190, 242, 98, 143, 62, 161, 221, 129, 62, 55, 7, 154, 61, 215, 107, 11, 190, 172, 128, 177, 58, 211, 61, 112, 189, 5, 246, 159, 190, 68, 205, 129, 62, 246, 138, 182, 62, 230, 3, 170, 190, 48, 119, 70, 190, 202, 236, 176, 62, 30, 180, 163, 62, 80, 248, 116, 62, 181, 218, 242, 61, 245, 83, 175, 61, 63, 153, 171, 60, 44, 193, 70, 190, 36, 163, 252, 190, 66, 210, 28, 191, 6, 160, 106, 61, 158, 30, 119, 190, 126, 142, 168, 190, 100, 202, 156, 190, 248, 126, 184, 60, 173, 35, 132, 190, 143, 16, 226, 189, 71, 24, 186, 60, 187, 95, 46, 62, 251, 136, 72, 61, 66, 7, 236, 188, 71, 242, 214, 189, 171, 66, 30, 62, 115, 76, 140, 61, 176, 179, 214, 189, 79, 252, 163, 62, 65, 190, 146, 62, 150, 247, 24, 62, 137, 149, 104, 189, 153, 208, 155, 190, 133, 208, 172, 190, 249, 129, 130, 190, 205, 83, 140, 189, 134, 129, 130, 61, 221, 118, 79, 62, 197, 195, 149, 62, 142, 170, 155, 62, 102, 168, 242, 61, 232, 126, 181, 61, 134, 12, 182, 61, 217, 86, 214, 189, 46, 87, 138, 59, 247, 91, 212, 188, 63, 47, 163, 189, 96, 215, 77, 190, 49, 206, 89, 189, 247, 192, 254, 189, 240, 225, 83, 188, 40, 87, 219, 189, 64, 236, 63, 60, 99, 153, 217, 189, 0, 112, 248, 58, 204, 247, 235, 188, 160, 105, 190, 187, 236, 131, 188, 189, 67, 175, 84, 188, 87, 49, 147, 189, 134, 75, 20, 61, 119, 135, 176, 61, 238, 13, 137, 59, 212, 103, 126, 61, 191, 165, 80, 61, 60, 80, 55, 189, 217, 66, 206, 188, 51, 168, 1, 60, 147, 72, 198, 189, 154, 214, 210, 189, 133, 84, 208, 188, 100, 40, 247, 186, 94, 178, 42, 190, 246, 33, 25, 61, 87, 34, 54, 61, 107, 238, 155, 61, 38, 155, 131, 190, 205, 199, 165, 190, 147, 75, 174, 190, 246, 9, 173, 60, 113, 159, 143, 62, 83, 146, 132, 190, 126, 71, 132, 189, 11, 88, 103, 62, 43, 175, 155, 60, 247, 101, 4, 190, 30, 239, 32, 190, 53, 136, 137, 59, 2, 80, 47, 190, 127, 52, 72, 190, 53, 190, 119, 59, 13, 200, 99, 190, 254, 21, 99, 190, 32, 140, 95, 189, 121, 77, 6, 188, 190, 179, 187, 189, 219, 98, 175, 189, 21, 186, 61, 61, 247, 198, 9, 62, 83, 158, 185, 61, 56, 163, 24, 190, 135, 19, 185, 61, 24, 85, 67, 61, 69, 49, 172, 189, 34, 232, 136, 60, 13, 17, 200, 188, 63, 151, 133, 61, 255, 134, 26, 62, 168, 44, 65, 62, 197, 245, 78, 62, 112, 187, 245, 61, 31, 96, 50, 62, 120, 191, 40, 190, 137, 161, 40, 190, 88, 211, 154, 62, 165, 54, 158, 190, 116, 212, 181, 189, 44, 22, 184, 62, 253, 16, 167, 189, 73, 61, 26, 190, 109, 178, 35, 62, 220, 248, 150, 189, 67, 136, 152, 61, 150, 252, 216, 189, 196, 200, 83, 62, 104, 246, 114, 62, 185, 151, 145, 62, 130, 234, 34, 190, 7, 142, 221, 188, 126, 28, 219, 61, 192, 29, 71, 62, 146, 10, 99, 189, 228, 173, 162, 190, 132, 26, 183, 62, 110, 177, 77, 188, 55, 202, 174, 190, 160, 212, 147, 62, 224, 138, 219, 188, 38, 177, 178, 190, 255, 136, 229, 188, 111, 157, 32, 190, 47, 213, 95, 61, 112, 2, 30, 62, 63, 93, 70, 62, 149, 129, 34, 62, 10, 28, 213, 61, 218, 101, 43, 62, 253, 49, 4, 61, 101, 131, 111, 61, 149, 218, 100, 62, 182, 158, 169, 61, 249, 155, 137, 190, 194, 76, 201, 61, 194, 27, 125, 62, 65, 60, 145, 190, 4, 179, 197, 190, 206, 82, 0, 190, 209, 135, 125, 189, 125, 27, 4, 188, 13, 173, 125, 61, 49, 18, 4, 62, 188, 138, 13, 190, 171, 77, 105, 190, 196, 162, 253, 62, 19, 188, 8, 190, 91, 187, 158, 190, 152, 6, 142, 62, 200, 113, 117, 62, 163, 47, 132, 62, 33, 229, 236, 60, 139, 241, 164, 59, 91, 133, 93, 60, 178, 158, 36, 190, 50, 117, 148, 190, 15, 152, 148, 190, 128, 90, 238, 189, 97, 165, 62, 190, 117, 182, 166, 190, 150, 80, 102, 62, 56, 194, 13, 188, 12, 164, 90, 190, 203, 231, 173, 61, 182, 56, 0, 62, 178, 74, 114, 190, 183, 12, 235, 188, 80, 156, 54, 190, 79, 64, 175, 190, 52, 169, 33, 190, 142, 5, 100, 190, 95, 101, 16, 190, 94, 101, 115, 62, 9, 153, 192, 62, 154, 123, 140, 62, 214, 134, 207, 190, 83, 166, 192, 190, 79, 43, 142, 190, 252, 10, 57, 62, 65, 160, 78, 61, 195, 97, 103, 62, 74, 82, 70, 62, 113, 30, 42, 62, 20, 180, 99, 62, 129, 56, 23, 189, 231, 151, 26, 190, 226, 65, 90, 61, 175, 83, 18, 189, 216, 104, 128, 61, 179, 111, 152, 61, 193, 106, 55, 189, 112, 41, 78, 60, 64, 27, 150, 189, 174, 110, 2, 190, 207, 12, 11, 188, 99, 133, 27, 190, 207, 67, 64, 62, 91, 74, 29, 61, 202, 132, 140, 61, 246, 143, 255, 61, 229, 1, 81, 59, 206, 23, 251, 61, 170, 219, 246, 255, 4, 0, 0, 0, 8, 0, 0, 0, 255, 255, 255, 255, 0, 4, 0, 0, 190, 219, 246, 255, 4, 0, 0, 0, 4, 0, 0, 0, 50, 203, 208, 190, 206, 219, 246, 255, 4, 0, 0, 0, 0, 2, 0, 0, 152, 172, 94, 62, 240, 165, 2, 189, 136, 206, 129, 189, 181, 177, 69, 62, 2, 157, 127, 62, 130, 61, 8, 190, 124, 4, 170, 189, 96, 60, 32, 189, 45, 13, 96, 189, 22, 84, 45, 61, 25, 119, 62, 189, 134, 135, 118, 62, 50, 173, 165, 61, 25, 112, 216, 189, 224, 190, 83, 62, 18, 152, 70, 62, 222, 66, 94, 61, 35, 183, 0, 189, 61, 170, 67, 189, 46, 128, 230, 188, 246, 110, 129, 62, 85, 26, 15, 62, 128, 76, 78, 189, 174, 164, 22, 190, 9, 82, 200, 61, 182, 214, 242, 188, 248, 126, 229, 61, 106, 248, 19, 61, 63, 199, 34, 189, 54, 26, 172, 188, 238, 235, 87, 61, 172, 66, 169, 188, 48, 31, 77, 62, 161, 208, 68, 62, 170, 154, 101, 62, 168, 248, 101, 62, 26, 93, 37, 62, 30, 76, 62, 188, 173, 163, 170, 188, 88, 105, 55, 62, 1, 130, 140, 62, 82, 221, 128, 62, 151, 43, 210, 60, 69, 122, 60, 62, 243, 66, 215, 189, 187, 26, 4, 62, 228, 209, 159, 62, 168, 96, 0, 189, 99, 99, 133, 189, 195, 197, 145, 189, 86, 71, 217, 187, 120, 182, 9, 62, 49, 145, 89, 61, 176, 184, 189, 189, 254, 234, 82, 62, 20, 250, 162, 188, 248, 13, 157, 188, 248, 147, 243, 189, 88, 7, 119, 188, 116, 33, 56, 189, 34, 73, 119, 188, 72, 216, 110, 188, 17, 166, 25, 58, 52, 181, 123, 188, 196, 170, 68, 188, 6, 231, 253, 188, 236, 131, 172, 61, 73, 53, 69, 62, 71, 54, 215, 60, 76, 193, 17, 190, 111, 74, 115, 61, 105, 38, 179, 188, 96, 68, 117, 189, 31, 55, 135, 189, 222, 140, 236, 189, 79, 104, 165, 189, 243, 216, 109, 189, 121, 225, 66, 62, 228, 61, 36, 62, 161, 212, 57, 189, 186, 154, 20, 189, 242, 1, 72, 189, 119, 153, 124, 62, 198, 7, 137, 189, 167, 247, 160, 188, 247, 101, 41, 61, 6, 202, 115, 188, 120, 239, 246, 60, 111, 164, 212, 59, 158, 83, 32, 62, 171, 3, 201, 189, 108, 191, 26, 190, 81, 1, 85, 62, 173, 139, 184, 61, 207, 238, 8, 60, 6, 244, 74, 62, 250, 11, 241, 188, 203, 206, 95, 62, 156, 237, 49, 62, 131, 16, 43, 189, 98, 13, 97, 62, 142, 18, 14, 190, 89, 122, 109, 62, 206, 107, 68, 189, 237, 164, 183, 188, 119, 44, 59, 62, 174, 50, 166, 60, 149, 162, 102, 188, 96, 122, 50, 61, 217, 38, 163, 189, 136, 1, 0, 190, 211, 64, 47, 189, 75, 220, 156, 188, 4, 179, 125, 62, 215, 235, 223, 59, 156, 4, 144, 61, 243, 64, 117, 190, 21, 237, 150, 188, 212, 250, 44, 188, 35, 129, 29, 189, 47, 184, 9, 188, 130, 231, 71, 189, 133, 74, 121, 62, 89, 191, 169, 189, 7, 107, 219, 189, 244, 189, 187, 188, 118, 83, 78, 188, 223, 223, 91, 62, 218, 221, 246, 255, 4, 0, 0, 0, 0, 0, 8, 0, 113, 97, 89, 61, 99, 93, 87, 62, 89, 176, 67, 190, 43, 203, 23, 190, 33, 171, 53, 189, 76, 114, 129, 60, 49, 105, 143, 61, 22, 250, 95, 62, 17, 45, 78, 61, 27, 252, 243, 189, 236, 111, 21, 190, 68, 33, 126, 188, 83, 10, 249, 61, 235, 202, 92, 189, 144, 170, 224, 189, 233, 182, 185, 60, 51, 188, 86, 190, 42, 230, 100, 189, 207, 194, 136, 61, 160, 219, 56, 187, 35, 146, 221, 188, 64, 63, 120, 188, 144, 208, 64, 61, 229, 251, 207, 60, 192, 174, 64, 61, 118, 43, 247, 61, 110, 126, 140, 61, 4, 70, 228, 187, 234, 174, 187, 61, 16, 254, 81, 62, 181, 220, 14, 62, 103, 173, 237, 61, 27, 18, 42, 62, 128, 14, 136, 60, 122, 134, 136, 188, 184, 252, 172, 60, 238, 92, 184, 190, 131, 50, 230, 61, 210, 206, 130, 188, 148, 201, 251, 188, 184, 169, 187, 60, 143, 106, 150, 188, 189, 212, 115, 61, 104, 42, 156, 61, 27, 1, 107, 189, 211, 78, 201, 61, 112, 23, 215, 189, 8, 56, 136, 61, 225, 215, 161, 188, 185, 151, 89, 62, 28, 200, 255, 61, 241, 80, 251, 188, 110, 45, 146, 189, 50, 47, 137, 189, 58, 45, 52, 61, 246, 145, 223, 61, 97, 219, 245, 189, 227, 68, 95, 189, 246, 250, 65, 61, 58, 198, 112, 189, 100, 137, 94, 189, 30, 190, 81, 61, 23, 119, 55, 187, 167, 159, 98, 60, 255, 69, 164, 61, 186, 114, 182, 61, 169, 252, 128, 62, 22, 144, 190, 189, 229, 192, 20, 61, 86, 126, 102, 188, 45, 216, 95, 190, 208, 40, 8, 62, 31, 120, 45, 189, 241, 19, 250, 61, 90, 148, 145, 190, 204, 72, 118, 187, 150, 109, 22, 62, 36, 10, 171, 190, 96, 226, 105, 189, 54, 99, 21, 62, 136, 160, 102, 57, 160, 70, 154, 187, 174, 164, 70, 189, 44, 114, 2, 189, 154, 151, 100, 61, 20, 14, 212, 60, 160, 223, 65, 189, 52, 22, 28, 62, 56, 158, 120, 61, 16, 120, 4, 62, 132, 145, 163, 60, 156, 145, 17, 61, 21, 168, 8, 189, 74, 179, 244, 61, 61, 207, 88, 62, 182, 224, 163, 61, 98, 72, 213, 61, 28, 71, 159, 188, 42, 7, 1, 61, 49, 225, 181, 60, 157, 17, 21, 190, 1, 134, 156, 61, 217, 86, 133, 61, 161, 160, 168, 188, 138, 156, 97, 62, 163, 6, 202, 60, 242, 124, 231, 60, 97, 41, 36, 190, 112, 143, 19, 60, 113, 175, 160, 61, 137, 70, 23, 190, 36, 82, 132, 189, 209, 182, 73, 188, 253, 14, 55, 62, 99, 210, 238, 61, 214, 235, 122, 59, 242, 58, 84, 189, 23, 69, 33, 189, 29, 61, 151, 58, 113, 102, 125, 62, 221, 222, 116, 62, 136, 9, 62, 60, 110, 189, 160, 189, 44, 205, 154, 60, 17, 108, 230, 60, 14, 87, 131, 189, 155, 121, 135, 188, 70, 184, 219, 60, 179, 215, 225, 61, 60, 1, 192, 60, 100, 245, 169, 62, 252, 80, 183, 189, 38, 1, 193, 60, 162, 119, 16, 188, 58, 5, 102, 190, 213, 196, 242, 61, 22, 163, 165, 188, 21, 168, 196, 188, 112, 101, 217, 189, 73, 140, 161, 189, 27, 179, 132, 188, 166, 63, 157, 190, 254, 125, 106, 190, 134, 206, 168, 188, 80, 45, 19, 62, 212, 34, 85, 61, 75, 123, 65, 189, 236, 99, 7, 61, 46, 135, 7, 60, 0, 111, 54, 189, 36, 120, 123, 189, 48, 186, 204, 189, 108, 138, 177, 188, 221, 183, 170, 61, 74, 128, 164, 188, 38, 253, 40, 189, 93, 230, 12, 189, 30, 39, 57, 188, 244, 5, 42, 62, 166, 125, 223, 188, 47, 139, 1, 61, 66, 126, 71, 61, 184, 131, 134, 61, 223, 0, 129, 189, 181, 252, 176, 189, 121, 210, 168, 61, 182, 65, 126, 61, 48, 68, 16, 61, 39, 179, 74, 189, 114, 130, 27, 62, 16, 232, 14, 61, 221, 62, 182, 189, 130, 48, 195, 188, 81, 86, 133, 61, 85, 146, 210, 58, 252, 58, 155, 60, 160, 81, 197, 61, 90, 215, 47, 62, 50, 179, 200, 189, 76, 97, 79, 189, 90, 27, 166, 189, 168, 174, 89, 61, 23, 94, 24, 189, 165, 133, 19, 62, 213, 128, 219, 61, 187, 118, 217, 188, 152, 128, 110, 189, 7, 166, 121, 189, 239, 127, 123, 188, 252, 113, 129, 189, 238, 195, 117, 187, 246, 16, 177, 60, 34, 77, 203, 61, 19, 98, 134, 61, 171, 131, 129, 62, 236, 35, 172, 62, 243, 244, 51, 188, 23, 166, 68, 189, 230, 104, 49, 189, 122, 225, 119, 57, 224, 28, 171, 60, 108, 150, 58, 62, 201, 218, 21, 62, 128, 16, 34, 61, 104, 171, 32, 62, 194, 149, 88, 189, 192, 116, 32, 190, 155, 108, 5, 62, 212, 138, 166, 62, 8, 101, 27, 60, 239, 36, 136, 189, 18, 116, 86, 61, 68, 108, 213, 61, 148, 185, 94, 61, 249, 30, 144, 189, 57, 93, 94, 189, 56, 72, 39, 60, 36, 236, 174, 61, 120, 168, 211, 60, 233, 71, 32, 61, 67, 140, 140, 61, 79, 51, 245, 61, 170, 83, 210, 61, 84, 82, 10, 190, 52, 146, 29, 190, 40, 244, 222, 60, 192, 254, 43, 187, 41, 126, 27, 189, 127, 178, 92, 62, 122, 141, 191, 188, 100, 39, 139, 61, 227, 114, 234, 60, 144, 84, 53, 62, 230, 205, 104, 188, 172, 0, 82, 189, 154, 39, 141, 59, 216, 232, 79, 188, 46, 159, 132, 188, 187, 63, 239, 189, 64, 45, 81, 60, 140, 236, 115, 61, 152, 221, 146, 61, 41, 250, 161, 189, 243, 176, 189, 189, 245, 244, 215, 61, 0, 52, 155, 184, 57, 44, 132, 61, 134, 48, 233, 189, 70, 138, 28, 190, 63, 148, 170, 188, 96, 229, 55, 189, 226, 203, 174, 60, 72, 115, 161, 60, 237, 70, 28, 189, 204, 49, 166, 59, 99, 227, 123, 189, 224, 47, 79, 59, 156, 51, 174, 59, 25, 187, 145, 61, 195, 10, 55, 190, 123, 181, 50, 61, 55, 55, 91, 187, 208, 169, 32, 190, 33, 163, 106, 190, 186, 100, 148, 60, 201, 36, 162, 189, 254, 230, 160, 190, 102, 220, 101, 61, 38, 45, 25, 189, 141, 78, 199, 189, 253, 170, 120, 62, 126, 201, 143, 188, 6, 69, 201, 188, 239, 124, 62, 189, 151, 94, 86, 186, 71, 221, 121, 61, 35, 143, 72, 190, 192, 250, 15, 188, 64, 210, 136, 61, 213, 248, 7, 190, 192, 90, 106, 59, 105, 113, 99, 61, 115, 172, 24, 189, 132, 186, 14, 61, 90, 212, 109, 61, 12, 4, 18, 60, 196, 238, 204, 61, 152, 101, 2, 62, 220, 97, 200, 189, 174, 95, 207, 188, 132, 148, 238, 188, 127, 234, 78, 189, 235, 226, 253, 190, 186, 174, 49, 190, 211, 14, 130, 61, 40, 85, 133, 61, 30, 38, 43, 190, 40, 100, 13, 190, 60, 245, 150, 61, 97, 0, 194, 60, 8, 242, 115, 189, 155, 211, 60, 189, 53, 26, 31, 190, 216, 58, 103, 60, 170, 126, 78, 61, 9, 207, 49, 62, 164, 49, 139, 189, 186, 215, 121, 190, 62, 223, 96, 60, 15, 61, 16, 189, 255, 152, 137, 61, 109, 191, 143, 188, 68, 220, 148, 189, 182, 235, 155, 189, 57, 148, 118, 189, 28, 248, 2, 189, 122, 16, 30, 59, 207, 75, 43, 189, 149, 103, 233, 60, 67, 80, 143, 189, 222, 33, 220, 61, 100, 35, 132, 62, 90, 236, 48, 188, 195, 40, 151, 189, 120, 120, 32, 62, 187, 48, 22, 61, 170, 160, 20, 190, 124, 207, 166, 190, 169, 199, 61, 61, 49, 62, 67, 190, 124, 216, 232, 189, 73, 224, 154, 62, 218, 206, 121, 190, 199, 164, 184, 190, 150, 92, 64, 190, 172, 202, 203, 61, 65, 21, 214, 190, 100, 83, 118, 61, 191, 2, 189, 60, 104, 235, 187, 188, 87, 36, 17, 189, 222, 197, 142, 61, 140, 233, 87, 61, 158, 135, 195, 62, 104, 123, 89, 60, 55, 223, 51, 62, 56, 203, 238, 188, 248, 232, 176, 62, 208, 11, 231, 60, 125, 152, 197, 190, 237, 63, 130, 60, 45, 192, 12, 62, 8, 168, 42, 189, 0, 19, 249, 187, 2, 219, 132, 189, 34, 173, 104, 61, 152, 148, 60, 189, 246, 214, 81, 62, 136, 249, 170, 61, 37, 7, 164, 61, 105, 168, 94, 188, 134, 249, 200, 190, 121, 230, 80, 60, 155, 108, 44, 190, 88, 219, 113, 61, 50, 145, 156, 62, 145, 123, 9, 191, 86, 3, 67, 61, 7, 183, 166, 187, 70, 124, 166, 188, 15, 128, 164, 62, 248, 189, 153, 190, 206, 105, 76, 190, 190, 229, 162, 60, 206, 146, 83, 61, 76, 83, 70, 190, 210, 145, 25, 190, 225, 168, 200, 60, 216, 243, 99, 188, 242, 38, 107, 61, 184, 44, 181, 188, 56, 135, 87, 189, 187, 29, 133, 188, 89, 230, 165, 61, 232, 37, 161, 60, 150, 136, 11, 190, 200, 35, 77, 62, 217, 112, 31, 190, 163, 76, 207, 61, 173, 4, 37, 189, 62, 233, 60, 190, 151, 9, 60, 190, 14, 184, 14, 60, 197, 30, 24, 191, 82, 176, 154, 190, 141, 100, 145, 61, 100, 12, 206, 190, 244, 126, 45, 190, 226, 58, 32, 190, 193, 18, 76, 188, 212, 134, 69, 190, 151, 245, 62, 61, 178, 9, 28, 189, 183, 122, 68, 61, 121, 28, 191, 189, 28, 25, 39, 61, 87, 30, 102, 60, 204, 208, 4, 61, 136, 8, 126, 60, 249, 141, 27, 62, 240, 129, 107, 61, 169, 107, 220, 189, 127, 57, 62, 189, 194, 135, 156, 190, 165, 140, 184, 189, 68, 252, 83, 62, 177, 10, 173, 189, 216, 197, 138, 60, 81, 1, 0, 189, 133, 83, 27, 61, 12, 43, 227, 189, 211, 28, 27, 59, 79, 114, 243, 59, 44, 65, 139, 60, 115, 72, 131, 190, 104, 43, 184, 189, 224, 49, 244, 188, 201, 139, 115, 190, 228, 71, 13, 189, 125, 221, 27, 189, 24, 191, 245, 61, 128, 106, 124, 189, 226, 255, 242, 61, 57, 29, 131, 190, 179, 90, 23, 189, 117, 151, 121, 62, 158, 40, 132, 190, 65, 159, 181, 188, 236, 54, 4, 61, 93, 149, 103, 190, 233, 208, 204, 190, 249, 159, 69, 59, 240, 130, 236, 60, 205, 235, 136, 61, 209, 66, 94, 188, 121, 224, 112, 189, 93, 196, 133, 188, 224, 16, 35, 61, 251, 36, 30, 60, 115, 149, 120, 189, 135, 98, 149, 61, 169, 242, 223, 61, 147, 193, 198, 189, 131, 244, 145, 60, 195, 23, 215, 61, 185, 227, 40, 187, 229, 61, 125, 61, 21, 137, 109, 190, 254, 87, 12, 190, 224, 254, 106, 62, 27, 132, 170, 61, 9, 170, 56, 62, 112, 189, 166, 189, 74, 13, 8, 62, 194, 101, 230, 61, 116, 240, 253, 60, 154, 25, 141, 188, 181, 199, 22, 189, 252, 90, 2, 190, 172, 43, 168, 60, 68, 254, 100, 61, 175, 224, 167, 62, 144, 211, 186, 187, 33, 188, 250, 60, 171, 89, 222, 60, 140, 253, 185, 61, 244, 72, 12, 189, 105, 123, 237, 59, 103, 161, 175, 188, 240, 204, 170, 189, 163, 241, 75, 189, 76, 220, 173, 60, 248, 161, 136, 60, 226, 125, 84, 61, 220, 56, 51, 189, 159, 80, 190, 188, 87, 54, 134, 61, 186, 9, 1, 189, 191, 165, 37, 62, 110, 77, 184, 61, 6, 210, 95, 61, 229, 160, 101, 189, 162, 234, 170, 188, 181, 42, 36, 189, 80, 75, 2, 62, 96, 90, 253, 59, 23, 228, 65, 61, 31, 33, 72, 190, 198, 175, 176, 190, 150, 243, 7, 62, 223, 217, 213, 60, 224, 225, 179, 59, 66, 28, 151, 61, 46, 13, 142, 189, 190, 231, 37, 190, 39, 252, 7, 189, 192, 128, 139, 59, 120, 28, 157, 61, 245, 184, 143, 61, 220, 168, 255, 188, 84, 11, 117, 61, 118, 80, 79, 189, 69, 72, 14, 187, 80, 97, 83, 190, 248, 2, 48, 62, 29, 54, 150, 61, 207, 42, 51, 188, 82, 35, 94, 188, 100, 108, 243, 61, 31, 199, 201, 190, 167, 83, 180, 189, 140, 10, 234, 61, 137, 57, 106, 189, 92, 79, 247, 189, 173, 50, 66, 62, 141, 168, 0, 60, 139, 109, 177, 62, 38, 215, 232, 61, 216, 74, 61, 62, 168, 32, 139, 61, 185, 244, 95, 61, 153, 115, 28, 189, 207, 8, 113, 60, 150, 131, 205, 60, 24, 200, 243, 59, 23, 179, 57, 189, 96, 131, 25, 60, 143, 14, 152, 61, 34, 51, 238, 60, 236, 174, 178, 61, 45, 153, 102, 189, 69, 153, 58, 190, 58, 167, 125, 190, 185, 215, 62, 61, 57, 82, 20, 190, 86, 140, 206, 188, 44, 56, 226, 60, 60, 213, 44, 61, 253, 233, 70, 189, 21, 140, 6, 61, 190, 242, 190, 61, 216, 255, 32, 61, 151, 6, 43, 62, 39, 250, 17, 190, 132, 69, 182, 188, 27, 10, 6, 62, 62, 123, 64, 61, 214, 145, 34, 190, 100, 26, 237, 61, 192, 81, 213, 186, 65, 218, 223, 61, 241, 68, 18, 61, 7, 141, 222, 60, 67, 52, 136, 190, 214, 246, 60, 188, 226, 232, 145, 61, 250, 12, 221, 188, 90, 72, 26, 62, 141, 113, 64, 62, 79, 203, 151, 189, 123, 250, 153, 60, 158, 163, 173, 188, 51, 102, 108, 60, 83, 7, 98, 189, 149, 141, 161, 61, 9, 130, 189, 60, 110, 50, 134, 61, 17, 134, 148, 62, 250, 180, 14, 62, 39, 254, 202, 189, 16, 21, 206, 61, 119, 6, 61, 189, 39, 32, 197, 61, 26, 60, 58, 190, 129, 192, 142, 189, 34, 21, 160, 190, 173, 173, 155, 190, 45, 180, 154, 190, 37, 28, 102, 190, 176, 169, 187, 187, 53, 162, 232, 61, 59, 177, 143, 190, 148, 238, 60, 61, 238, 80, 227, 60, 0, 99, 241, 188, 42, 126, 129, 188, 203, 159, 18, 61, 31, 226, 139, 189, 15, 68, 160, 188, 118, 85, 210, 61, 196, 19, 139, 61, 255, 79, 201, 61, 73, 7, 58, 189, 73, 195, 163, 189, 240, 70, 155, 61, 102, 169, 225, 190, 116, 67, 156, 60, 255, 252, 217, 61, 169, 35, 15, 62, 14, 248, 68, 189, 149, 179, 102, 189, 12, 193, 205, 188, 75, 56, 156, 190, 230, 28, 198, 60, 120, 88, 190, 61, 146, 245, 125, 61, 139, 55, 89, 190, 5, 182, 180, 190, 113, 187, 69, 61, 147, 25, 110, 189, 192, 43, 153, 187, 26, 202, 172, 189, 231, 90, 190, 189, 184, 255, 4, 60, 148, 37, 214, 61, 87, 98, 41, 60, 16, 235, 22, 189, 230, 163, 12, 190, 37, 127, 21, 61, 174, 136, 90, 61, 208, 177, 45, 61, 11, 103, 165, 61, 227, 47, 67, 61, 126, 158, 41, 188, 174, 133, 141, 61, 75, 145, 209, 188, 167, 67, 21, 187, 173, 127, 216, 60, 214, 192, 168, 59, 5, 219, 245, 59, 239, 59, 247, 61, 4, 106, 64, 188, 125, 13, 247, 187, 177, 133, 187, 189, 101, 23, 104, 61, 200, 71, 53, 61, 148, 88, 232, 188, 12, 192, 89, 188, 189, 21, 119, 61, 129, 150, 72, 190, 178, 115, 92, 60, 96, 227, 167, 190, 75, 169, 116, 189, 107, 204, 247, 61, 2, 180, 64, 190, 109, 40, 146, 190, 255, 40, 10, 191, 188, 19, 169, 60, 69, 91, 134, 60, 134, 167, 76, 61, 77, 104, 151, 190, 50, 108, 131, 186, 119, 173, 88, 60, 56, 35, 14, 190, 174, 63, 106, 188, 223, 187, 177, 61, 164, 28, 140, 61, 110, 36, 129, 189, 79, 46, 161, 188, 91, 119, 137, 190, 132, 206, 220, 61, 20, 127, 222, 60, 29, 31, 163, 61, 98, 19, 84, 189, 86, 169, 221, 188, 162, 21, 49, 60, 207, 34, 145, 61, 186, 2, 29, 190, 218, 13, 199, 61, 84, 162, 0, 61, 33, 72, 16, 62, 99, 176, 48, 189, 67, 190, 254, 188, 142, 79, 53, 190, 117, 200, 162, 188, 249, 125, 189, 186, 91, 242, 62, 190, 9, 176, 18, 189, 58, 204, 235, 60, 101, 181, 148, 190, 170, 183, 144, 190, 238, 87, 92, 62, 225, 82, 220, 189, 92, 187, 97, 189, 112, 207, 151, 61, 131, 170, 65, 188, 207, 216, 128, 61, 173, 181, 58, 188, 237, 129, 47, 189, 57, 41, 139, 61, 160, 57, 133, 189, 160, 177, 115, 61, 66, 37, 193, 61, 25, 51, 10, 61, 119, 155, 129, 60, 237, 169, 98, 190, 162, 160, 126, 189, 114, 87, 120, 61, 15, 148, 146, 189, 115, 34, 134, 189, 156, 138, 245, 189, 210, 114, 57, 190, 139, 106, 171, 61, 103, 137, 121, 188, 227, 133, 246, 61, 165, 192, 107, 62, 191, 217, 247, 61, 161, 4, 16, 188, 160, 159, 216, 190, 118, 35, 115, 189, 151, 18, 55, 190, 177, 23, 53, 61, 46, 201, 134, 189, 80, 17, 122, 60, 99, 197, 245, 190, 176, 32, 196, 59, 163, 203, 219, 60, 111, 243, 229, 61, 220, 128, 24, 61, 55, 168, 60, 61, 174, 26, 70, 189, 206, 175, 186, 188, 128, 5, 173, 61, 71, 70, 5, 190, 12, 220, 135, 189, 255, 133, 26, 190, 233, 197, 219, 189, 146, 97, 139, 189, 137, 126, 83, 189, 249, 143, 199, 188, 232, 244, 168, 57, 128, 216, 143, 190, 101, 192, 211, 188, 83, 173, 44, 188, 75, 198, 217, 61, 115, 211, 178, 189, 241, 64, 170, 188, 223, 163, 244, 60, 166, 81, 186, 188, 124, 74, 0, 189, 94, 160, 253, 60, 173, 13, 0, 189, 132, 32, 230, 61, 89, 172, 138, 189, 167, 97, 9, 61, 30, 106, 166, 61, 121, 226, 191, 189, 64, 150, 58, 59, 91, 112, 63, 60, 76, 25, 140, 190, 21, 113, 127, 189, 156, 196, 41, 61, 168, 171, 138, 61, 48, 206, 179, 60, 201, 226, 54, 61, 240, 90, 179, 188, 153, 163, 161, 61, 18, 60, 142, 189, 215, 71, 228, 61, 78, 189, 230, 189, 37, 243, 185, 188, 142, 10, 11, 61, 168, 149, 28, 190, 80, 77, 85, 189, 111, 97, 233, 188, 170, 12, 201, 189, 65, 108, 124, 189, 120, 186, 81, 62, 172, 6, 114, 189, 219, 171, 84, 190, 107, 166, 19, 62, 79, 163, 47, 190, 21, 153, 47, 61, 147, 6, 177, 187, 203, 246, 147, 61, 113, 123, 94, 189, 63, 138, 70, 189, 144, 19, 183, 187, 189, 194, 136, 59, 60, 207, 54, 61, 209, 212, 217, 188, 191, 32, 0, 62, 214, 110, 132, 188, 204, 193, 33, 61, 48, 99, 156, 59, 78, 153, 124, 61, 78, 43, 38, 61, 81, 136, 83, 190, 237, 227, 101, 190, 188, 64, 243, 189, 103, 249, 181, 189, 52, 15, 128, 60, 106, 18, 89, 189, 27, 231, 28, 189, 63, 66, 170, 61, 44, 232, 143, 189, 2, 96, 252, 61, 194, 26, 230, 57, 64, 101, 181, 62, 197, 71, 146, 60, 153, 80, 139, 61, 209, 147, 57, 62, 242, 153, 59, 61, 175, 32, 151, 190, 144, 81, 101, 62, 93, 112, 134, 189, 223, 123, 149, 61, 199, 209, 118, 62, 119, 170, 162, 190, 115, 53, 182, 61, 153, 124, 114, 190, 16, 94, 118, 61, 111, 50, 198, 59, 0, 94, 147, 61, 237, 39, 43, 62, 122, 228, 105, 187, 169, 205, 44, 189, 33, 208, 191, 186, 218, 42, 103, 61, 127, 187, 24, 189, 30, 12, 179, 60, 91, 24, 218, 60, 44, 56, 138, 61, 52, 167, 19, 61, 127, 217, 79, 189, 237, 174, 14, 62, 92, 131, 89, 190, 19, 101, 172, 59, 215, 24, 8, 189, 39, 217, 170, 189, 136, 139, 132, 61, 119, 81, 34, 58, 196, 65, 136, 62, 81, 192, 226, 189, 141, 75, 102, 61, 197, 226, 76, 189, 88, 127, 205, 61, 243, 53, 234, 61, 188, 129, 44, 60, 136, 87, 85, 60, 121, 106, 103, 61, 172, 50, 220, 188, 205, 16, 160, 189, 172, 145, 88, 60, 250, 159, 19, 189, 38, 161, 194, 61, 114, 58, 242, 188, 81, 212, 4, 187, 70, 28, 137, 59, 71, 248, 217, 61, 145, 51, 156, 61, 208, 243, 82, 190, 26, 86, 176, 61, 248, 149, 5, 61, 52, 42, 233, 61, 78, 117, 135, 61, 61, 250, 35, 61, 102, 244, 15, 61, 157, 57, 151, 62, 87, 169, 197, 61, 90, 77, 32, 61, 95, 11, 152, 61, 246, 250, 32, 61, 152, 93, 71, 62, 102, 167, 216, 58, 31, 13, 199, 61, 142, 24, 203, 188, 156, 254, 66, 190, 197, 218, 19, 62, 162, 69, 64, 61, 86, 148, 191, 188, 12, 51, 100, 61, 210, 177, 140, 189, 194, 157, 88, 62, 11, 212, 119, 61, 83, 255, 139, 189, 248, 238, 52, 61, 151, 218, 83, 62, 99, 23, 164, 188, 103, 79, 135, 61, 130, 57, 141, 61, 3, 49, 137, 61, 174, 38, 51, 60, 209, 5, 215, 59, 85, 24, 137, 188, 18, 96, 63, 61, 63, 66, 170, 61, 202, 41, 160, 60, 205, 100, 106, 61, 230, 67, 82, 189, 166, 10, 37, 190, 107, 176, 235, 60, 220, 167, 160, 189, 209, 119, 57, 189, 229, 32, 52, 189, 19, 156, 42, 61, 191, 4, 93, 189, 41, 100, 210, 189, 29, 170, 201, 60, 19, 104, 20, 61, 150, 37, 78, 189, 152, 143, 196, 189, 35, 131, 144, 190, 128, 99, 110, 60, 180, 9, 0, 61, 26, 20, 0, 189, 114, 28, 152, 188, 86, 246, 5, 188, 78, 187, 127, 189, 188, 73, 67, 189, 193, 38, 191, 60, 131, 108, 3, 61, 232, 132, 118, 61, 252, 244, 191, 188, 230, 99, 163, 188, 190, 40, 62, 190, 209, 21, 35, 62, 4, 220, 12, 62, 144, 136, 151, 60, 176, 41, 24, 188, 231, 202, 138, 189, 165, 87, 138, 189, 10, 227, 174, 188, 146, 22, 190, 189, 53, 205, 163, 61, 132, 19, 215, 189, 248, 92, 157, 62, 245, 57, 53, 62, 24, 138, 161, 188, 222, 158, 151, 189, 232, 57, 250, 60, 241, 83, 20, 189, 70, 19, 229, 188, 176, 124, 23, 189, 243, 136, 237, 61, 139, 185, 145, 189, 163, 10, 73, 190, 85, 103, 23, 62, 222, 47, 187, 61, 55, 161, 84, 189, 125, 230, 177, 183, 57, 245, 46, 61, 125, 80, 16, 189, 123, 182, 125, 61, 111, 255, 43, 60, 198, 209, 24, 189, 229, 29, 144, 61, 61, 170, 141, 189, 64, 132, 161, 61, 163, 84, 131, 59, 127, 125, 210, 61, 200, 243, 49, 190, 48, 58, 131, 59, 36, 237, 224, 189, 178, 107, 6, 187, 160, 228, 217, 60, 153, 95, 71, 60, 206, 43, 0, 191, 114, 242, 216, 188, 48, 9, 31, 190, 46, 75, 19, 190, 193, 147, 217, 61, 183, 254, 149, 61, 160, 109, 196, 189, 25, 25, 153, 190, 61, 5, 71, 190, 77, 117, 58, 190, 144, 170, 37, 188, 46, 37, 78, 189, 34, 27, 69, 189, 32, 154, 222, 189, 168, 104, 110, 61, 158, 132, 147, 189, 47, 177, 164, 61, 57, 44, 24, 189, 251, 211, 163, 61, 0, 243, 176, 58, 101, 75, 54, 190, 254, 142, 107, 61, 160, 69, 66, 190, 68, 94, 3, 190, 119, 107, 65, 190, 37, 55, 251, 190, 180, 5, 27, 189, 6, 49, 100, 189, 107, 138, 58, 188, 137, 112, 49, 190, 14, 187, 62, 190, 65, 94, 228, 60, 82, 82, 198, 187, 98, 86, 179, 188, 163, 217, 200, 188, 75, 11, 41, 189, 170, 126, 97, 61, 250, 150, 128, 61, 114, 141, 233, 61, 99, 139, 221, 189, 94, 60, 146, 188, 137, 69, 158, 61, 149, 145, 17, 189, 72, 146, 96, 189, 143, 72, 100, 189, 138, 35, 144, 189, 224, 254, 166, 188, 119, 227, 140, 60, 68, 82, 184, 190, 35, 190, 4, 190, 17, 140, 51, 189, 101, 233, 0, 189, 198, 60, 150, 61, 61, 220, 253, 188, 202, 72, 6, 189, 61, 186, 30, 189, 211, 251, 248, 60, 216, 92, 79, 189, 148, 238, 70, 59, 23, 116, 26, 61, 21, 10, 163, 59, 119, 145, 73, 61, 192, 200, 54, 187, 152, 131, 58, 60, 32, 241, 183, 187, 164, 244, 255, 60, 105, 152, 31, 61, 207, 171, 75, 189, 77, 67, 36, 60, 16, 85, 151, 60, 137, 182, 241, 60, 192, 198, 72, 189, 17, 210, 209, 187, 244, 153, 121, 61, 244, 4, 164, 60, 153, 191, 94, 61, 32, 116, 9, 61, 48, 33, 204, 188, 232, 20, 123, 188, 217, 241, 11, 189, 193, 175, 220, 187, 216, 125, 115, 188, 173, 31, 226, 188, 96, 34, 142, 59, 214, 49, 133, 189, 140, 199, 188, 187, 104, 186, 139, 189, 243, 215, 18, 61, 26, 244, 49, 188, 239, 108, 25, 61, 228, 110, 82, 188, 24, 7, 58, 60, 106, 48, 84, 189, 231, 194, 151, 188, 164, 40, 143, 189, 129, 1, 10, 189, 134, 226, 77, 189, 222, 21, 49, 189, 34, 106, 222, 188, 247, 95, 8, 188, 107, 117, 153, 188, 28, 97, 130, 61, 69, 75, 128, 188, 88, 171, 50, 189, 64, 229, 53, 188, 0, 194, 195, 60, 72, 140, 53, 189, 234, 90, 172, 189, 203, 184, 104, 60, 40, 60, 48, 61, 164, 175, 21, 61, 152, 116, 84, 189, 232, 246, 121, 188, 44, 254, 145, 189, 234, 239, 33, 61, 120, 160, 116, 60, 94, 199, 130, 189, 213, 113, 64, 61, 240, 39, 21, 60, 240, 114, 76, 59, 182, 10, 215, 60, 20, 24, 190, 59, 239, 32, 19, 188, 98, 82, 34, 61, 155, 190, 197, 188, 32, 82, 164, 189, 37, 218, 95, 189, 189, 92, 241, 60, 179, 82, 16, 61, 4, 4, 91, 61, 80, 5, 216, 60, 1, 23, 161, 60, 36, 138, 188, 188, 84, 253, 145, 60, 49, 151, 111, 61, 196, 32, 58, 189, 149, 195, 84, 61, 64, 14, 205, 59, 4, 69, 142, 60, 129, 59, 133, 189, 160, 242, 76, 188, 163, 94, 75, 189, 194, 138, 141, 61, 202, 74, 104, 189, 101, 232, 95, 189, 128, 172, 117, 187, 231, 21, 142, 189, 92, 114, 32, 188, 116, 245, 52, 189, 97, 4, 17, 189, 91, 244, 36, 189, 88, 102, 136, 189, 46, 225, 163, 187, 162, 61, 63, 61, 146, 56, 142, 188, 36, 201, 164, 188, 114, 152, 157, 188, 5, 101, 110, 188, 51, 140, 65, 61, 96, 196, 10, 59, 26, 211, 64, 61, 168, 198, 111, 60, 234, 252, 1, 60, 2, 190, 32, 60, 53, 100, 51, 189, 144, 240, 103, 61, 227, 57, 13, 188, 106, 83, 177, 188, 200, 112, 191, 60, 71, 139, 75, 189, 145, 195, 244, 60, 62, 69, 2, 61, 89, 63, 175, 186, 106, 95, 152, 186, 186, 68, 144, 61, 12, 163, 107, 61, 60, 162, 137, 61, 38, 175, 50, 189, 22, 17, 228, 188, 90, 100, 52, 189, 128, 14, 157, 187, 116, 114, 118, 189, 202, 196, 57, 61, 94, 154, 255, 60, 205, 244, 68, 189, 45, 37, 148, 189, 124, 56, 55, 61, 75, 198, 27, 189, 133, 215, 140, 60, 80, 207, 157, 189, 118, 123, 138, 61, 225, 162, 45, 61, 245, 232, 43, 188, 228, 147, 120, 189, 203, 101, 18, 60, 251, 69, 91, 189, 105, 174, 91, 61, 224, 95, 202, 188, 180, 76, 88, 61, 197, 25, 190, 188, 113, 148, 64, 189, 180, 96, 104, 189, 18, 195, 141, 61, 188, 246, 148, 189, 156, 238, 108, 188, 71, 218, 176, 60, 96, 54, 192, 188, 122, 187, 50, 189, 17, 255, 140, 189, 215, 62, 136, 189, 20, 147, 149, 188, 240, 60, 217, 60, 221, 174, 148, 189, 13, 131, 6, 189, 82, 2, 79, 188, 212, 73, 148, 189, 204, 106, 177, 59, 54, 241, 97, 61, 148, 168, 140, 61, 32, 241, 47, 59, 34, 113, 12, 189, 225, 64, 133, 189, 30, 237, 231, 186, 200, 38, 213, 188, 26, 72, 59, 61, 192, 92, 220, 59, 113, 50, 159, 60, 239, 72, 7, 61, 89, 133, 220, 188, 104, 242, 115, 61, 143, 93, 27, 60, 5, 148, 128, 61, 180, 154, 131, 60, 176, 156, 119, 187, 153, 141, 170, 60, 53, 70, 233, 189, 10, 41, 115, 189, 75, 213, 149, 187, 66, 237, 2, 189, 230, 192, 9, 61, 94, 150, 83, 61, 249, 103, 154, 189, 16, 57, 20, 188, 156, 221, 136, 61, 85, 150, 31, 189, 17, 67, 247, 188, 245, 161, 128, 189, 192, 233, 26, 189, 102, 13, 184, 60, 102, 48, 106, 188, 213, 190, 68, 60, 69, 210, 54, 61, 94, 44, 44, 188, 1, 174, 67, 187, 128, 72, 47, 59, 105, 151, 60, 61, 43, 194, 17, 188, 178, 151, 70, 61, 118, 212, 135, 61, 43, 99, 87, 59, 199, 84, 186, 59, 196, 118, 109, 61, 14, 109, 253, 188, 245, 30, 223, 188, 154, 56, 82, 61, 72, 53, 209, 189, 192, 172, 144, 189, 197, 245, 176, 59, 128, 25, 0, 58, 32, 28, 114, 189, 56, 34, 143, 189, 243, 98, 136, 189, 147, 194, 53, 61, 123, 251, 10, 189, 123, 24, 104, 189, 192, 50, 246, 187, 24, 15, 148, 189, 24, 247, 70, 61, 94, 116, 27, 61, 100, 224, 24, 61, 2, 197, 41, 61, 133, 202, 3, 189, 128, 23, 123, 60, 192, 115, 115, 61, 36, 14, 137, 61, 218, 91, 182, 59, 220, 214, 179, 60, 114, 11, 87, 189, 122, 229, 73, 61, 32, 179, 14, 188, 185, 160, 157, 189, 147, 111, 162, 188, 29, 20, 209, 188, 10, 141, 56, 61, 241, 127, 13, 189, 208, 194, 8, 60, 235, 20, 137, 189, 55, 23, 60, 188, 82, 1, 250, 60, 243, 60, 163, 189, 145, 118, 9, 61, 95, 154, 2, 189, 112, 98, 154, 60, 46, 110, 17, 189, 226, 97, 2, 189, 223, 178, 135, 189, 121, 201, 173, 187, 48, 242, 61, 189, 216, 143, 13, 60, 138, 25, 138, 189, 23, 51, 16, 189, 19, 25, 121, 61, 25, 102, 60, 61, 41, 49, 34, 60, 109, 183, 139, 189, 232, 38, 106, 189, 87, 251, 184, 188, 38, 193, 34, 189, 88, 86, 114, 189, 238, 118, 11, 61, 218, 16, 161, 189, 236, 90, 163, 60, 45, 1, 79, 189, 130, 158, 149, 189, 93, 84, 144, 61, 80, 214, 228, 59, 197, 242, 238, 59, 46, 105, 42, 189, 156, 224, 174, 188, 249, 63, 76, 188, 96, 54, 99, 61, 216, 217, 138, 189, 48, 136, 141, 61, 56, 121, 67, 189, 238, 31, 15, 61, 32, 68, 203, 187, 241, 201, 203, 60, 170, 7, 17, 189, 64, 83, 143, 60, 60, 172, 84, 61, 145, 179, 148, 188, 212, 175, 59, 61, 231, 200, 11, 61, 239, 65, 173, 187, 245, 87, 172, 60, 99, 165, 235, 60, 234, 20, 82, 189, 100, 193, 138, 61, 102, 241, 42, 61, 57, 205, 122, 186, 128, 178, 162, 189, 140, 182, 202, 60, 108, 154, 207, 60, 96, 240, 172, 60, 255, 207, 71, 189, 193, 163, 209, 60, 139, 163, 151, 59, 216, 154, 212, 60, 142, 182, 149, 189, 86, 170, 212, 188, 74, 187, 91, 189, 84, 140, 131, 61, 161, 107, 78, 185, 132, 18, 237, 188, 206, 56, 4, 188, 246, 188, 132, 189, 238, 166, 187, 188, 28, 247, 53, 189, 200, 19, 121, 189, 141, 47, 79, 61, 89, 79, 74, 61, 92, 1, 203, 60, 103, 20, 4, 61, 123, 66, 117, 61, 168, 116, 236, 60, 139, 85, 1, 61, 49, 247, 130, 59, 147, 117, 14, 188, 219, 98, 73, 189, 36, 72, 126, 189, 46, 167, 69, 61, 134, 81, 3, 60, 196, 165, 141, 61, 107, 12, 194, 187, 177, 71, 182, 189, 130, 240, 31, 189, 72, 215, 102, 61, 78, 150, 247, 188, 210, 62, 122, 189, 12, 229, 213, 60, 70, 231, 200, 188, 227, 32, 220, 188, 209, 221, 60, 61, 21, 208, 31, 189, 80, 213, 142, 59, 134, 87, 29, 59, 48, 199, 0, 189, 241, 39, 62, 189, 160, 244, 89, 187, 8, 72, 56, 61, 192, 46, 169, 188, 243, 130, 47, 189, 121, 110, 229, 188, 179, 144, 51, 189, 184, 186, 158, 189, 79, 140, 2, 187, 167, 65, 51, 60, 212, 88, 236, 187, 137, 6, 89, 189, 159, 24, 117, 189, 140, 103, 163, 60, 0, 95, 172, 58, 122, 197, 136, 189, 255, 121, 60, 189, 196, 18, 18, 189, 114, 188, 14, 189, 192, 56, 6, 187, 56, 72, 132, 61, 139, 35, 189, 60, 151, 124, 157, 189, 50, 177, 122, 189, 88, 218, 140, 61, 56, 249, 17, 189, 47, 14, 247, 188, 130, 74, 64, 189, 45, 183, 141, 189, 122, 41, 225, 188, 99, 166, 124, 189, 189, 238, 71, 60, 168, 235, 117, 61, 86, 206, 53, 61, 96, 48, 97, 59, 133, 55, 122, 61, 76, 30, 250, 60, 223, 218, 0, 189, 184, 118, 29, 61, 128, 94, 90, 59, 199, 232, 32, 186, 242, 198, 62, 61, 93, 106, 203, 60, 73, 35, 163, 187, 161, 17, 78, 189, 228, 101, 142, 189, 158, 59, 18, 187, 31, 107, 93, 60, 163, 147, 191, 60, 64, 3, 185, 187, 99, 54, 28, 61, 91, 46, 206, 188, 172, 67, 97, 61, 98, 24, 86, 61, 142, 175, 137, 189, 169, 13, 238, 187, 74, 52, 183, 188, 213, 27, 70, 189, 45, 164, 107, 61, 108, 122, 106, 61, 53, 33, 29, 188, 125, 76, 11, 189, 180, 58, 17, 61, 64, 2, 110, 61, 116, 95, 94, 61, 104, 252, 113, 61, 52, 155, 185, 188, 176, 104, 215, 188, 233, 185, 143, 189, 25, 204, 134, 189, 116, 163, 88, 61, 135, 92, 230, 60, 88, 0, 92, 189, 103, 76, 17, 189, 214, 34, 86, 189, 120, 33, 54, 189, 64, 4, 225, 188, 240, 28, 135, 61, 24, 98, 25, 188, 228, 191, 101, 188, 66, 33, 38, 189, 219, 13, 244, 188, 144, 75, 26, 188, 84, 3, 12, 61, 160, 227, 204, 188, 174, 153, 81, 189, 190, 96, 84, 61, 216, 148, 141, 187, 116, 209, 132, 60, 57, 166, 145, 189, 24, 207, 35, 61, 12, 180, 52, 189, 10, 82, 252, 188, 96, 64, 62, 189, 194, 123, 47, 60, 70, 174, 61, 61, 240, 210, 218, 188, 96, 135, 244, 60, 220, 142, 95, 188, 246, 172, 243, 60, 240, 242, 143, 188, 21, 23, 202, 60, 105, 13, 82, 189, 36, 108, 146, 61, 205, 123, 149, 189, 142, 16, 112, 189, 209, 149, 132, 189, 16, 87, 53, 189, 5, 63, 13, 61, 235, 73, 29, 61, 50, 140, 63, 61, 146, 60, 170, 187, 5, 148, 155, 60, 169, 146, 185, 186, 110, 55, 226, 188, 206, 34, 226, 59, 50, 103, 18, 189, 119, 52, 255, 60, 240, 98, 229, 60, 248, 172, 99, 189, 172, 12, 106, 61, 131, 169, 45, 189, 81, 27, 53, 189, 163, 63, 45, 188, 188, 77, 130, 189, 21, 113, 142, 189, 100, 155, 156, 189, 36, 111, 101, 188, 112, 114, 65, 189, 40, 110, 66, 61, 82, 251, 9, 61, 243, 82, 110, 189, 240, 55, 126, 188, 159, 73, 144, 189, 178, 8, 75, 61, 115, 13, 121, 59, 81, 202, 42, 189, 116, 217, 104, 60, 102, 190, 34, 61, 215, 125, 146, 189, 65, 56, 153, 189, 196, 56, 6, 61, 244, 205, 147, 60, 45, 219, 124, 189, 220, 226, 33, 189, 126, 251, 82, 189, 160, 18, 132, 59, 0, 16, 201, 184, 118, 122, 163, 188, 165, 189, 185, 60, 108, 111, 170, 60, 126, 215, 80, 189, 212, 154, 184, 60, 186, 51, 224, 60, 126, 163, 67, 61, 6, 27, 19, 61, 162, 118, 33, 61, 50, 251, 41, 61, 46, 113, 147, 60, 67, 172, 204, 60, 67, 226, 196, 188, 0, 243, 132, 61, 12, 76, 101, 61, 172, 30, 50, 189, 50, 112, 193, 59, 167, 184, 154, 189, 64, 162, 124, 61, 92, 255, 65, 61, 70, 194, 51, 188, 64, 142, 187, 188, 199, 171, 155, 189, 233, 180, 41, 189, 230, 69, 99, 61, 151, 139, 243, 60, 231, 104, 218, 189, 203, 236, 218, 188, 202, 168, 32, 61, 198, 230, 143, 189, 39, 160, 144, 189, 140, 197, 67, 189, 24, 161, 71, 189, 204, 132, 80, 189, 176, 34, 56, 188, 143, 41, 122, 189, 52, 214, 30, 188, 133, 214, 236, 60, 142, 215, 161, 60, 133, 82, 50, 61, 175, 209, 154, 59, 228, 9, 148, 60, 178, 87, 177, 187, 216, 202, 189, 60, 253, 237, 74, 61, 27, 67, 109, 189, 148, 120, 144, 61, 14, 82, 141, 189, 96, 182, 71, 59, 174, 50, 252, 188, 172, 27, 194, 188, 239, 4, 21, 188, 118, 98, 130, 188, 82, 125, 75, 189, 140, 188, 137, 61, 185, 247, 72, 188, 50, 11, 106, 189, 64, 119, 198, 187, 64, 56, 196, 186, 32, 220, 65, 187, 169, 93, 18, 189, 123, 3, 161, 189, 128, 169, 29, 58, 208, 178, 203, 60, 104, 8, 83, 60, 243, 82, 46, 189, 98, 255, 10, 189, 40, 24, 126, 189, 6, 67, 44, 189, 16, 71, 116, 189, 85, 19, 11, 190, 147, 106, 137, 189, 200, 28, 117, 188, 97, 146, 66, 189, 24, 88, 89, 61, 141, 42, 18, 188, 3, 137, 74, 187, 148, 58, 144, 189, 247, 67, 138, 189, 82, 65, 206, 60, 224, 176, 6, 186, 88, 231, 160, 60, 152, 44, 42, 61, 204, 107, 134, 189, 120, 72, 152, 189, 192, 241, 169, 186, 10, 171, 50, 189, 140, 183, 58, 61, 205, 143, 131, 61, 166, 226, 38, 189, 213, 92, 55, 189, 173, 207, 216, 188, 16, 115, 213, 57, 102, 124, 48, 189, 201, 182, 58, 61, 197, 127, 158, 188, 64, 86, 30, 188, 122, 66, 146, 189, 226, 192, 74, 189, 173, 41, 131, 189, 32, 121, 3, 188, 210, 50, 75, 188, 179, 31, 63, 61, 248, 137, 160, 189, 99, 10, 64, 189, 90, 14, 34, 61, 228, 46, 108, 189, 28, 10, 145, 189, 42, 174, 112, 61, 224, 107, 141, 189, 142, 235, 129, 61, 210, 192, 242, 60, 76, 225, 75, 61, 234, 223, 92, 188, 196, 248, 167, 60, 192, 164, 4, 60, 139, 157, 110, 189, 101, 201, 178, 189, 39, 154, 12, 187, 165, 65, 167, 189, 100, 123, 163, 61, 184, 26, 247, 188, 0, 112, 57, 185, 20, 211, 52, 188, 153, 145, 67, 61, 204, 72, 107, 189, 8, 223, 119, 189, 114, 27, 127, 189, 88, 18, 130, 189, 160, 75, 81, 61, 32, 23, 234, 188, 57, 117, 66, 188, 24, 194, 144, 60, 211, 59, 98, 61, 242, 125, 131, 189, 176, 212, 33, 61, 6, 30, 145, 56, 87, 121, 206, 187, 188, 57, 29, 189, 119, 46, 135, 189, 187, 7, 89, 61, 140, 11, 96, 61, 176, 178, 30, 188, 20, 1, 153, 188, 55, 189, 128, 61, 247, 156, 88, 187, 91, 62, 24, 189, 172, 217, 195, 188, 80, 104, 45, 189, 137, 221, 17, 189, 87, 202, 119, 61, 17, 242, 254, 60, 52, 154, 96, 189, 230, 18, 82, 189, 18, 66, 173, 188, 176, 62, 35, 189, 172, 159, 186, 185, 84, 249, 106, 188, 50, 101, 156, 188, 74, 210, 66, 61, 28, 118, 195, 60, 89, 151, 29, 61, 186, 146, 111, 61, 36, 120, 28, 61, 94, 137, 146, 188, 4, 67, 15, 189, 79, 163, 155, 189, 232, 92, 155, 189, 13, 149, 150, 189, 72, 190, 65, 60, 241, 192, 33, 189, 16, 49, 178, 60, 74, 178, 29, 60, 160, 137, 23, 59, 174, 2, 91, 189, 232, 2, 221, 188, 75, 31, 112, 189, 188, 141, 44, 61, 216, 129, 62, 61, 55, 201, 56, 61, 114, 235, 140, 60, 88, 121, 173, 60, 116, 96, 66, 187, 197, 227, 166, 188, 54, 147, 182, 189, 220, 187, 115, 61, 77, 188, 41, 189, 210, 62, 139, 61, 125, 248, 239, 188, 163, 118, 125, 189, 36, 54, 121, 189, 240, 216, 150, 187, 224, 59, 35, 60, 59, 85, 36, 61, 92, 45, 94, 189, 91, 30, 190, 60, 8, 48, 6, 61, 85, 59, 45, 61, 138, 78, 141, 189, 57, 3, 114, 189, 163, 118, 52, 59, 210, 81, 218, 186, 72, 134, 152, 60, 169, 16, 126, 187, 58, 160, 157, 189, 205, 75, 33, 189, 96, 49, 176, 187, 178, 96, 126, 189, 230, 157, 20, 189, 212, 32, 123, 189, 196, 139, 98, 188, 60, 79, 68, 61, 122, 23, 221, 188, 4, 208, 238, 188, 247, 201, 208, 188, 17, 215, 173, 60, 38, 42, 85, 189, 157, 78, 229, 188, 35, 208, 86, 189, 171, 86, 227, 187, 33, 250, 88, 61, 150, 254, 63, 189, 240, 64, 7, 61, 252, 21, 144, 189, 94, 34, 20, 189, 196, 180, 37, 61, 40, 17, 111, 61, 99, 134, 90, 189, 48, 71, 39, 61, 68, 234, 174, 59, 138, 58, 36, 189, 195, 246, 139, 187, 112, 214, 137, 189, 104, 154, 20, 60, 33, 27, 103, 189, 106, 147, 145, 61, 96, 156, 151, 60, 178, 94, 14, 189, 120, 58, 153, 60, 69, 43, 33, 59, 176, 168, 240, 188, 40, 197, 52, 59, 224, 129, 150, 59, 213, 126, 164, 189, 243, 238, 141, 60, 199, 135, 150, 189, 40, 134, 57, 189, 205, 79, 30, 188, 249, 197, 124, 60, 80, 211, 64, 60, 50, 204, 192, 188, 60, 153, 134, 60, 136, 171, 48, 189, 125, 60, 179, 189, 84, 135, 189, 60, 2, 151, 136, 61, 187, 105, 1, 189, 58, 190, 68, 188, 72, 64, 53, 189, 85, 238, 58, 60, 152, 135, 89, 188, 91, 218, 135, 60, 160, 113, 72, 188, 56, 19, 95, 61, 36, 216, 72, 188, 117, 33, 209, 188, 210, 213, 252, 59, 112, 37, 140, 188, 137, 144, 200, 188, 198, 161, 82, 61, 148, 158, 33, 189, 129, 227, 253, 188, 208, 174, 242, 188, 43, 36, 0, 188, 4, 82, 144, 189, 128, 238, 116, 186, 72, 60, 32, 60, 92, 88, 244, 60, 41, 198, 153, 189, 221, 210, 94, 189, 56, 136, 15, 189, 97, 18, 75, 60, 86, 142, 147, 189, 111, 72, 129, 61, 246, 115, 137, 189, 252, 48, 178, 188, 94, 31, 242, 188, 88, 45, 46, 189, 48, 242, 43, 60, 102, 31, 47, 189, 167, 35, 3, 61, 100, 193, 49, 61, 104, 66, 96, 188, 197, 220, 153, 189, 42, 26, 146, 189, 81, 208, 220, 60, 6, 44, 67, 189, 170, 64, 129, 188, 213, 52, 129, 188, 190, 171, 100, 189, 158, 38, 165, 189, 111, 56, 122, 189, 92, 155, 178, 188, 224, 211, 90, 189, 176, 46, 124, 61, 86, 24, 115, 61, 176, 129, 141, 187, 93, 209, 218, 59, 135, 74, 189, 188, 86, 218, 48, 189, 173, 176, 90, 189, 227, 223, 154, 60, 109, 140, 163, 60, 96, 166, 139, 187, 52, 218, 78, 188, 0, 91, 31, 187, 242, 66, 56, 61, 239, 235, 63, 188, 176, 147, 146, 188, 69, 136, 122, 189, 72, 206, 199, 60, 39, 102, 71, 189, 28, 190, 11, 61, 205, 217, 120, 61, 250, 20, 170, 188, 96, 94, 151, 189, 159, 35, 171, 60, 40, 253, 255, 60, 226, 103, 224, 60, 124, 108, 26, 185, 91, 4, 184, 189, 1, 155, 170, 189, 87, 82, 97, 60, 48, 182, 97, 61, 170, 29, 141, 61, 152, 87, 197, 60, 198, 192, 105, 189, 188, 57, 239, 188, 152, 67, 57, 60, 24, 5, 60, 61, 109, 30, 37, 189, 48, 223, 158, 188, 145, 253, 153, 188, 121, 244, 70, 189, 251, 190, 146, 189, 216, 224, 158, 189, 185, 23, 49, 189, 152, 153, 127, 61, 164, 78, 170, 188, 229, 189, 23, 189, 23, 170, 42, 60, 51, 75, 103, 189, 184, 150, 68, 189, 2, 26, 85, 61, 214, 168, 143, 189, 116, 178, 62, 188, 214, 171, 138, 61, 137, 136, 153, 189, 214, 66, 225, 60, 43, 133, 118, 60, 153, 233, 143, 59, 92, 136, 118, 61, 5, 71, 41, 189, 209, 170, 128, 189, 213, 113, 49, 189, 204, 32, 196, 60, 198, 201, 159, 188, 213, 195, 2, 60, 222, 225, 18, 189, 24, 169, 71, 189, 188, 191, 213, 60, 96, 166, 151, 189, 43, 8, 215, 60, 65, 115, 92, 189, 12, 163, 155, 189, 196, 226, 129, 61, 9, 163, 122, 189, 184, 36, 107, 189, 221, 143, 18, 189, 50, 28, 146, 61, 100, 158, 43, 189, 3, 43, 26, 189, 128, 84, 185, 59, 34, 207, 64, 189, 150, 212, 224, 188, 227, 139, 87, 61, 79, 148, 135, 189, 95, 197, 98, 61, 228, 104, 91, 61, 95, 64, 208, 188, 46, 197, 136, 189, 190, 108, 29, 61, 151, 123, 52, 188, 150, 142, 95, 61, 35, 154, 82, 189, 136, 37, 231, 59, 199, 35, 254, 188, 24, 61, 78, 61, 132, 50, 121, 189, 64, 83, 47, 59, 63, 51, 111, 188, 1, 201, 81, 189, 66, 131, 97, 189, 81, 147, 143, 189, 10, 76, 150, 188, 64, 222, 35, 189, 224, 35, 24, 189, 14, 59, 195, 188, 169, 101, 158, 189, 169, 153, 100, 189, 248, 248, 49, 59, 125, 179, 112, 61, 70, 61, 155, 189, 150, 150, 139, 61, 96, 61, 182, 188, 136, 110, 35, 188, 84, 5, 84, 189, 173, 104, 20, 187, 154, 198, 134, 189, 131, 118, 45, 61, 172, 42, 140, 61, 226, 18, 215, 60, 220, 22, 45, 188, 194, 71, 121, 61, 86, 247, 151, 188, 128, 96, 59, 188, 166, 18, 157, 60, 165, 108, 17, 189, 224, 6, 140, 189, 42, 195, 81, 61, 56, 254, 82, 61, 95, 173, 14, 61, 228, 129, 85, 188, 237, 245, 81, 189, 80, 191, 9, 188, 192, 228, 181, 58, 171, 142, 252, 60, 168, 210, 45, 189, 235, 157, 5, 188, 15, 133, 106, 61, 68, 64, 78, 189, 0, 60, 188, 57, 84, 140, 154, 60, 168, 20, 182, 60, 75, 38, 53, 189, 82, 93, 217, 60, 32, 147, 206, 60, 150, 10, 143, 189, 24, 69, 25, 188, 21, 63, 91, 61, 200, 172, 34, 189, 219, 176, 145, 60, 221, 169, 121, 189, 249, 86, 198, 60, 51, 60, 133, 189, 224, 52, 14, 59, 209, 241, 151, 189, 175, 83, 51, 188, 149, 17, 119, 189, 148, 175, 165, 189, 183, 45, 33, 189, 240, 134, 3, 188, 40, 209, 4, 188, 38, 150, 131, 61, 42, 127, 145, 189, 199, 67, 103, 61, 128, 243, 67, 58, 186, 238, 90, 189, 50, 131, 6, 61, 216, 184, 122, 61, 198, 109, 143, 189, 97, 58, 129, 61, 132, 237, 131, 187, 53, 177, 11, 189, 36, 163, 121, 59, 222, 123, 158, 60, 60, 90, 219, 188, 6, 157, 102, 189, 179, 175, 27, 187, 65, 168, 205, 188, 104, 11, 83, 61, 197, 159, 136, 189, 37, 61, 7, 61, 151, 119, 86, 189, 128, 190, 218, 60, 217, 77, 94, 187, 181, 103, 136, 61, 80, 234, 208, 60, 194, 101, 34, 188, 123, 119, 82, 189, 126, 65, 130, 60, 120, 75, 19, 61, 251, 180, 7, 189, 84, 193, 136, 61, 32, 78, 156, 60, 52, 38, 130, 59, 16, 38, 252, 60, 136, 18, 220, 188, 250, 114, 222, 188, 1, 51, 8, 189, 216, 45, 141, 189, 24, 220, 1, 189, 180, 208, 85, 61, 82, 199, 31, 189, 29, 173, 153, 185, 201, 64, 94, 189, 144, 129, 178, 188, 6, 96, 231, 188, 158, 219, 98, 189, 14, 169, 101, 60, 153, 140, 119, 189, 77, 157, 10, 189, 60, 81, 6, 61, 70, 144, 157, 189, 41, 36, 119, 61, 188, 34, 110, 189, 214, 248, 122, 189, 84, 156, 148, 60, 247, 99, 61, 188, 232, 227, 181, 60, 115, 173, 185, 60, 26, 79, 193, 60, 191, 25, 26, 189, 151, 23, 42, 61, 62, 37, 38, 58, 232, 247, 156, 188, 86, 15, 1, 61, 68, 109, 0, 60, 51, 201, 133, 189, 58, 166, 63, 188, 86, 23, 135, 189, 92, 246, 141, 60, 18, 110, 77, 61, 216, 225, 32, 60, 105, 91, 61, 61, 230, 234, 83, 61, 200, 132, 213, 60, 90, 53, 178, 188, 112, 141, 12, 58, 250, 0, 50, 61, 180, 45, 98, 189, 202, 104, 29, 61, 194, 250, 106, 61, 14, 81, 201, 189, 32, 236, 138, 188, 160, 85, 81, 61, 116, 255, 11, 61, 192, 163, 208, 187, 64, 128, 5, 189, 96, 132, 59, 189, 2, 254, 255, 60, 124, 164, 28, 189, 77, 177, 212, 189, 100, 103, 147, 61, 143, 92, 3, 61, 164, 83, 158, 60, 170, 126, 170, 189, 176, 153, 129, 61, 228, 217, 38, 61, 132, 50, 148, 189, 206, 114, 128, 189, 30, 61, 113, 189, 222, 102, 11, 189, 197, 16, 97, 189, 153, 79, 107, 189, 150, 255, 176, 189, 150, 140, 93, 187, 51, 171, 4, 189, 102, 46, 39, 188, 5, 127, 131, 189, 180, 159, 188, 60, 160, 150, 228, 187, 47, 47, 60, 61, 200, 143, 84, 189, 208, 50, 80, 61, 32, 247, 158, 187, 208, 16, 193, 187, 22, 202, 34, 189, 242, 148, 64, 189, 150, 29, 129, 189, 28, 95, 217, 60, 219, 245, 172, 189, 168, 96, 111, 189, 208, 149, 93, 188, 112, 94, 19, 61, 19, 74, 82, 189, 186, 143, 179, 189, 173, 157, 159, 185, 11, 187, 148, 188, 188, 247, 137, 60, 78, 9, 68, 189, 52, 123, 152, 189, 122, 128, 187, 60, 6, 166, 25, 60, 232, 58, 236, 60, 118, 49, 35, 189, 50, 210, 148, 189, 64, 56, 67, 61, 236, 157, 25, 189, 149, 194, 100, 61, 223, 205, 69, 189, 246, 135, 22, 188, 103, 126, 16, 188, 176, 79, 55, 61, 109, 128, 157, 59, 126, 152, 25, 61, 96, 251, 133, 188, 239, 199, 107, 189, 2, 127, 15, 61, 54, 243, 131, 189, 193, 124, 206, 188, 244, 135, 129, 189, 170, 38, 131, 61, 207, 104, 225, 188, 45, 21, 133, 59, 200, 99, 138, 188, 215, 199, 146, 187, 220, 94, 49, 188, 67, 24, 100, 189, 12, 215, 155, 188, 221, 232, 179, 184, 52, 166, 55, 188, 32, 110, 253, 59, 208, 168, 164, 189, 24, 166, 136, 61, 235, 171, 10, 61, 212, 152, 216, 60, 190, 189, 49, 189, 18, 193, 190, 187, 241, 126, 150, 189, 241, 8, 21, 190, 97, 212, 1, 58, 247, 38, 92, 189, 224, 174, 120, 61, 80, 253, 38, 60, 70, 210, 214, 188, 24, 107, 34, 189, 82, 240, 106, 189, 204, 109, 108, 188, 100, 38, 41, 189, 64, 229, 172, 59, 49, 111, 15, 61, 174, 142, 30, 189, 105, 116, 249, 57, 104, 146, 43, 61, 216, 178, 35, 60, 182, 132, 226, 189, 206, 163, 130, 61, 194, 68, 223, 60, 152, 41, 45, 189, 96, 135, 144, 188, 203, 173, 188, 189, 81, 221, 47, 189, 12, 51, 6, 61, 130, 214, 180, 188, 127, 108, 132, 188, 82, 64, 100, 189, 23, 140, 26, 61, 152, 113, 179, 188, 32, 181, 140, 189, 203, 134, 83, 187, 128, 191, 3, 186, 80, 250, 253, 188, 154, 187, 126, 61, 69, 111, 105, 189, 100, 76, 173, 188, 5, 33, 16, 61, 35, 18, 75, 189, 31, 228, 164, 60, 190, 176, 130, 61, 175, 132, 157, 189, 108, 211, 201, 189, 48, 12, 109, 61, 251, 1, 194, 60, 33, 35, 242, 60, 20, 105, 185, 189, 57, 194, 20, 189, 198, 85, 146, 189, 170, 116, 222, 188, 4, 188, 3, 61, 193, 112, 215, 188, 100, 30, 189, 60, 103, 239, 12, 189, 240, 188, 140, 187, 230, 104, 135, 189, 200, 213, 121, 60, 192, 139, 175, 186, 96, 121, 217, 188, 40, 87, 162, 60, 185, 74, 22, 61, 47, 21, 128, 189, 177, 142, 188, 189, 62, 3, 223, 187, 54, 212, 162, 189, 212, 65, 162, 189, 207, 12, 212, 189, 124, 147, 191, 189, 188, 209, 135, 61, 12, 191, 112, 61, 16, 13, 9, 188, 197, 203, 165, 189, 116, 235, 156, 189, 190, 213, 40, 61, 140, 168, 15, 61, 41, 178, 41, 189, 105, 169, 144, 189, 228, 121, 147, 189, 5, 173, 131, 61, 106, 202, 138, 189, 38, 74, 180, 59, 21, 93, 246, 188, 29, 181, 83, 189, 240, 104, 117, 189, 104, 207, 195, 60, 133, 169, 222, 60, 42, 119, 198, 189, 96, 209, 32, 61, 20, 111, 42, 188, 222, 195, 25, 61, 40, 66, 121, 188, 220, 79, 3, 61, 26, 242, 20, 189, 48, 2, 235, 59, 188, 197, 167, 60, 120, 124, 136, 60, 40, 237, 80, 188, 45, 234, 56, 61, 31, 168, 57, 61, 254, 69, 208, 187, 28, 22, 143, 189, 150, 92, 250, 60, 237, 132, 81, 189, 48, 31, 191, 188, 236, 124, 105, 188, 192, 223, 4, 61, 58, 29, 207, 60, 168, 97, 59, 188, 91, 170, 11, 60, 29, 57, 76, 189, 250, 195, 203, 187, 100, 199, 246, 60, 165, 255, 113, 189, 77, 220, 189, 189, 22, 165, 26, 61, 207, 58, 236, 189, 248, 160, 252, 60, 145, 216, 150, 189, 200, 18, 19, 61, 97, 209, 97, 60, 224, 102, 28, 60, 12, 194, 134, 60, 221, 128, 176, 189, 56, 40, 112, 60, 115, 22, 114, 188, 76, 233, 90, 61, 201, 126, 18, 189, 194, 90, 141, 189, 150, 200, 141, 186, 166, 153, 141, 189, 3, 208, 221, 189, 158, 130, 247, 188, 128, 172, 211, 59, 8, 200, 17, 61, 92, 65, 8, 61, 165, 82, 160, 188, 191, 5, 158, 189, 70, 181, 29, 61, 216, 93, 242, 60, 96, 218, 211, 60, 179, 119, 48, 61, 95, 235, 212, 188, 103, 219, 108, 61, 27, 64, 131, 189, 246, 139, 51, 60, 179, 55, 95, 188, 231, 99, 30, 189, 15, 63, 206, 60, 162, 187, 129, 189, 73, 84, 0, 189, 55, 64, 180, 189, 39, 87, 200, 60, 252, 110, 56, 61, 80, 222, 49, 188, 130, 47, 13, 61, 170, 16, 229, 188, 127, 79, 47, 189, 242, 224, 135, 61, 70, 27, 16, 189, 170, 42, 48, 60, 50, 124, 63, 189, 245, 82, 232, 60, 14, 231, 45, 189, 228, 237, 134, 188, 214, 88, 97, 59, 91, 168, 212, 189, 111, 12, 151, 189, 12, 55, 172, 60, 140, 175, 131, 60, 154, 205, 155, 189, 250, 11, 142, 189, 134, 198, 5, 189, 243, 80, 27, 61, 36, 222, 98, 189, 150, 207, 8, 190, 164, 6, 68, 61, 180, 203, 205, 60, 65, 182, 240, 186, 225, 128, 242, 188, 245, 93, 9, 190, 104, 182, 96, 61, 131, 183, 37, 61, 244, 9, 126, 61, 174, 244, 75, 188, 224, 44, 81, 189, 195, 170, 113, 189, 109, 120, 177, 60, 122, 183, 135, 61, 27, 117, 201, 188, 26, 218, 84, 61, 181, 84, 188, 59, 23, 127, 139, 187, 162, 179, 182, 60, 184, 178, 236, 58, 137, 180, 172, 189, 148, 42, 233, 188, 14, 216, 176, 188, 164, 129, 81, 189, 186, 119, 25, 61, 171, 158, 251, 60, 147, 182, 217, 189, 112, 247, 65, 188, 46, 78, 75, 189, 127, 162, 10, 189, 237, 252, 32, 189, 124, 129, 225, 186, 189, 80, 3, 189, 108, 161, 24, 61, 179, 186, 128, 189, 130, 64, 47, 189, 174, 137, 48, 189, 175, 181, 109, 60, 219, 223, 75, 61, 158, 135, 173, 189, 124, 255, 244, 189, 144, 224, 16, 61, 144, 193, 158, 188, 112, 227, 146, 61, 79, 178, 83, 189, 7, 172, 204, 189, 143, 87, 46, 61, 142, 224, 141, 61, 170, 131, 62, 61, 11, 84, 114, 188, 248, 133, 12, 60, 54, 124, 50, 189, 193, 241, 165, 60, 96, 173, 158, 189, 247, 120, 39, 189, 150, 51, 31, 189, 114, 225, 123, 61, 56, 220, 241, 188, 204, 179, 217, 60, 140, 163, 153, 60, 181, 93, 21, 189, 188, 31, 45, 189, 106, 81, 242, 55, 252, 170, 45, 189, 10, 37, 126, 60, 68, 96, 142, 188, 197, 83, 196, 60, 251, 156, 163, 60, 162, 109, 212, 188, 202, 227, 207, 188, 254, 59, 99, 189, 182, 214, 178, 188, 51, 35, 140, 189, 122, 89, 67, 189, 136, 197, 58, 61, 48, 107, 205, 60, 241, 223, 162, 188, 154, 136, 31, 189, 175, 189, 89, 61, 174, 209, 40, 189, 127, 149, 25, 184, 96, 50, 65, 189, 189, 110, 160, 189, 165, 12, 83, 188, 152, 29, 8, 60, 50, 169, 150, 189, 129, 15, 147, 189, 169, 228, 143, 189, 184, 154, 106, 188, 245, 166, 198, 59, 50, 2, 49, 189, 247, 7, 86, 189, 82, 119, 110, 189, 60, 139, 236, 60, 224, 240, 233, 58, 88, 12, 149, 188, 207, 122, 96, 188, 208, 79, 203, 59, 165, 15, 178, 189, 44, 42, 205, 189, 48, 239, 52, 61, 90, 183, 160, 188, 47, 115, 153, 60, 124, 244, 149, 188, 213, 170, 253, 189, 160, 158, 76, 189, 191, 75, 29, 189, 178, 22, 204, 188, 248, 39, 248, 189, 146, 236, 208, 188, 47, 7, 103, 61, 216, 185, 157, 189, 102, 119, 215, 60, 94, 83, 237, 188, 212, 78, 76, 61, 0, 154, 167, 188, 115, 139, 166, 60, 121, 141, 199, 60, 170, 146, 112, 189, 130, 54, 16, 60, 6, 185, 157, 188, 157, 85, 178, 60, 32, 232, 250, 60, 24, 252, 91, 61, 89, 53, 216, 60, 20, 20, 42, 188, 238, 193, 44, 187, 240, 114, 252, 60, 67, 30, 21, 189, 116, 210, 131, 61, 152, 43, 2, 61, 204, 104, 174, 189, 0, 98, 136, 189, 180, 250, 135, 189, 208, 185, 89, 61, 76, 236, 114, 61, 176, 237, 128, 189, 32, 0, 12, 189, 204, 119, 126, 188, 104, 58, 12, 188, 85, 71, 135, 189, 40, 143, 69, 60, 213, 46, 132, 61, 56, 148, 96, 61, 199, 102, 183, 189, 36, 26, 10, 189, 26, 214, 86, 189, 191, 156, 141, 189, 101, 105, 184, 189, 105, 41, 1, 60, 228, 146, 104, 61, 118, 100, 142, 61, 192, 238, 3, 59, 58, 255, 179, 187, 188, 82, 56, 188, 35, 172, 19, 189, 216, 84, 210, 60, 115, 46, 128, 189, 166, 67, 116, 189, 153, 200, 237, 188, 203, 8, 223, 58, 154, 0, 11, 61, 243, 179, 156, 189, 193, 82, 212, 188, 73, 109, 30, 189, 176, 114, 157, 189, 88, 166, 204, 189, 214, 205, 121, 188, 162, 20, 167, 189, 171, 157, 192, 60, 24, 179, 90, 61, 66, 10, 11, 61, 125, 219, 74, 189, 135, 57, 76, 188, 96, 95, 153, 188, 0, 143, 194, 60, 240, 134, 182, 60, 231, 62, 8, 189, 200, 60, 90, 61, 45, 74, 14, 188, 119, 7, 100, 61, 84, 23, 9, 61, 196, 213, 190, 188, 158, 121, 4, 61, 239, 82, 26, 189, 161, 190, 126, 188, 23, 17, 4, 189, 118, 146, 152, 189, 234, 185, 3, 190, 0, 105, 173, 58, 55, 211, 102, 61, 133, 144, 124, 60, 52, 75, 91, 189, 200, 81, 207, 60, 66, 71, 37, 61, 114, 227, 181, 60, 99, 82, 92, 188, 149, 250, 157, 189, 214, 182, 72, 189, 70, 48, 89, 189, 80, 7, 54, 188, 42, 135, 155, 189, 28, 233, 210, 60, 118, 246, 130, 61, 191, 144, 200, 189, 0, 135, 134, 58, 72, 8, 91, 188, 42, 105, 16, 189, 164, 249, 70, 189, 248, 162, 45, 61, 32, 26, 68, 188, 80, 67, 253, 188, 119, 6, 211, 188, 12, 238, 36, 60, 128, 86, 146, 186, 124, 98, 145, 188, 210, 34, 52, 61, 28, 11, 79, 189, 166, 232, 151, 189, 103, 234, 123, 189, 224, 12, 130, 59, 212, 167, 24, 189, 8, 32, 97, 59, 200, 149, 80, 189, 88, 20, 155, 188, 16, 95, 8, 188, 70, 163, 53, 59, 102, 198, 234, 189, 134, 20, 142, 189, 207, 28, 255, 60, 169, 176, 81, 189, 22, 164, 2, 189, 233, 47, 181, 189, 26, 82, 127, 60, 146, 193, 143, 189, 98, 85, 185, 188, 135, 4, 37, 60, 3, 78, 72, 189, 191, 60, 154, 189, 244, 194, 255, 60, 80, 51, 142, 61, 121, 194, 128, 61, 128, 78, 150, 187, 1, 149, 19, 61, 66, 194, 187, 188, 36, 71, 243, 60, 130, 73, 18, 188, 58, 168, 211, 189, 154, 24, 33, 60, 37, 90, 159, 188, 206, 213, 27, 189, 236, 86, 22, 61, 252, 48, 210, 188, 160, 179, 233, 60, 126, 160, 78, 60, 242, 200, 25, 188, 65, 129, 130, 187, 170, 207, 124, 189, 150, 166, 77, 189, 17, 74, 155, 189, 215, 48, 87, 61, 238, 64, 167, 188, 40, 166, 157, 60, 225, 117, 153, 187, 134, 1, 145, 61, 185, 102, 158, 60, 255, 42, 1, 189, 96, 229, 129, 187, 24, 250, 215, 189, 172, 98, 195, 60, 193, 231, 75, 61, 242, 94, 85, 189, 245, 55, 165, 189, 167, 250, 201, 188, 193, 29, 222, 189, 129, 135, 126, 189, 215, 244, 187, 189, 50, 162, 93, 189, 62, 91, 104, 189, 54, 32, 138, 61, 106, 197, 139, 61, 80, 215, 156, 189, 3, 0, 239, 188, 148, 31, 127, 61, 224, 114, 61, 60, 238, 81, 174, 188, 136, 149, 3, 188, 181, 221, 133, 61, 69, 73, 167, 188, 228, 224, 243, 188, 249, 82, 50, 189, 66, 84, 136, 187, 176, 117, 156, 59, 141, 239, 146, 189, 178, 194, 5, 189, 22, 94, 150, 189, 234, 53, 152, 189, 58, 44, 25, 187, 160, 43, 223, 60, 192, 218, 85, 189, 241, 116, 174, 188, 19, 203, 55, 59, 181, 140, 76, 188, 230, 115, 43, 61, 49, 233, 131, 61, 88, 177, 9, 189, 111, 64, 108, 189, 121, 242, 120, 60, 237, 188, 244, 57, 230, 240, 60, 189, 166, 208, 225, 189, 15, 83, 232, 58, 142, 85, 155, 60, 70, 74, 164, 60, 52, 185, 118, 61, 187, 13, 87, 189, 40, 255, 5, 189, 226, 177, 29, 189, 172, 52, 192, 188, 102, 173, 15, 188, 218, 76, 183, 189, 105, 201, 88, 189, 2, 249, 73, 59, 94, 223, 168, 60, 244, 27, 220, 59, 159, 236, 161, 189, 171, 167, 144, 189, 165, 207, 121, 187, 16, 140, 186, 60, 240, 228, 21, 61, 20, 87, 254, 188, 100, 43, 123, 61, 65, 199, 82, 189, 48, 177, 191, 59, 20, 166, 41, 189, 213, 75, 144, 189, 119, 234, 137, 189, 73, 215, 17, 188, 85, 16, 240, 60, 146, 32, 249, 60, 98, 142, 189, 189, 45, 54, 164, 60, 90, 81, 48, 189, 123, 90, 97, 189, 64, 238, 144, 58, 196, 73, 177, 189, 25, 253, 22, 189, 208, 167, 34, 60, 240, 83, 162, 59, 13, 95, 109, 189, 225, 29, 185, 189, 43, 68, 30, 60, 144, 32, 1, 189, 36, 183, 160, 60, 197, 0, 52, 189, 40, 226, 13, 188, 128, 147, 120, 186, 203, 177, 137, 188, 32, 230, 182, 60, 38, 192, 155, 189, 81, 122, 183, 186, 73, 14, 42, 189, 16, 29, 14, 61, 25, 194, 23, 189, 233, 21, 70, 61, 217, 157, 65, 189, 139, 84, 100, 189, 78, 254, 137, 188, 229, 91, 79, 60, 74, 244, 49, 188, 204, 222, 43, 61, 71, 116, 119, 189, 41, 88, 103, 189, 158, 143, 148, 189, 146, 67, 71, 187, 66, 24, 170, 189, 42, 193, 61, 60, 166, 216, 38, 189, 118, 75, 76, 188, 236, 106, 18, 189, 4, 175, 4, 60, 120, 216, 91, 60, 187, 23, 56, 61, 111, 62, 145, 189, 90, 130, 121, 188, 93, 75, 150, 189, 224, 23, 225, 60, 21, 20, 120, 189, 253, 44, 109, 188, 75, 0, 91, 188, 228, 215, 96, 189, 130, 220, 18, 189, 140, 206, 51, 188, 177, 75, 219, 187, 64, 30, 2, 59, 53, 223, 23, 61, 123, 3, 71, 189, 52, 130, 96, 61, 165, 237, 152, 59, 60, 102, 61, 188, 202, 130, 101, 189, 60, 106, 22, 189, 204, 186, 101, 188, 136, 215, 150, 189, 125, 200, 152, 188, 99, 113, 209, 186, 8, 49, 252, 60, 128, 170, 127, 189, 28, 48, 142, 61, 237, 63, 171, 189, 250, 126, 11, 189, 140, 155, 117, 61, 12, 171, 204, 60, 192, 58, 218, 186, 8, 171, 229, 59, 165, 54, 60, 60, 214, 38, 150, 189, 12, 0, 15, 61, 239, 141, 99, 60, 219, 238, 208, 189, 88, 215, 106, 60, 160, 204, 100, 61, 214, 219, 167, 189, 77, 160, 195, 60, 18, 117, 250, 60, 55, 131, 202, 188, 222, 52, 58, 61, 168, 253, 5, 61, 69, 207, 140, 187, 40, 42, 52, 61, 202, 199, 164, 60, 106, 194, 39, 189, 84, 72, 43, 189, 181, 120, 232, 59, 40, 88, 53, 188, 161, 140, 31, 189, 14, 187, 91, 189, 182, 70, 147, 189, 187, 5, 198, 189, 216, 205, 220, 60, 193, 70, 196, 189, 165, 128, 134, 189, 189, 21, 97, 189, 197, 79, 194, 189, 169, 3, 73, 61, 232, 239, 100, 61, 234, 111, 65, 61, 205, 207, 136, 189, 196, 195, 169, 60, 125, 162, 152, 58, 30, 84, 237, 189, 159, 96, 128, 189, 68, 250, 242, 189, 231, 130, 154, 188, 0, 124, 93, 185, 166, 243, 154, 189, 32, 46, 212, 60, 125, 16, 107, 188, 43, 209, 56, 189, 158, 253, 226, 188, 147, 247, 172, 189, 128, 66, 126, 61, 92, 14, 178, 60, 196, 10, 141, 60, 120, 26, 179, 188, 48, 176, 116, 61, 27, 163, 195, 60, 238, 104, 145, 60, 53, 140, 240, 189, 225, 165, 76, 189, 106, 58, 135, 61, 64, 131, 231, 186, 40, 243, 126, 189, 109, 35, 155, 189, 197, 238, 53, 188, 85, 213, 143, 189, 38, 182, 146, 189, 44, 166, 128, 61, 49, 149, 132, 189, 227, 151, 132, 60, 36, 50, 229, 60, 156, 87, 96, 189, 121, 1, 154, 59, 67, 35, 83, 189, 198, 246, 61, 189, 246, 203, 56, 61, 218, 134, 152, 189, 16, 116, 181, 189, 36, 61, 17, 189, 171, 103, 45, 61, 182, 169, 206, 188, 244, 105, 218, 60, 123, 210, 9, 61, 43, 186, 173, 189, 99, 188, 157, 189, 3, 137, 123, 189, 120, 137, 113, 61, 192, 200, 157, 189, 48, 241, 20, 61, 167, 27, 142, 188, 120, 243, 30, 61, 28, 37, 171, 187, 63, 101, 24, 61, 1, 82, 186, 188, 223, 210, 181, 188, 192, 44, 178, 189, 248, 26, 39, 61, 104, 51, 184, 187, 156, 154, 70, 61, 192, 10, 42, 189, 239, 16, 148, 189, 4, 47, 198, 57, 136, 156, 154, 188, 80, 9, 175, 187, 170, 206, 68, 188, 159, 75, 165, 187, 17, 99, 173, 189, 25, 253, 171, 189, 36, 193, 199, 60, 141, 235, 62, 189, 92, 66, 210, 60, 240, 238, 39, 61, 48, 69, 67, 189, 160, 6, 182, 188, 33, 171, 162, 188, 1, 106, 146, 189, 194, 207, 39, 188, 244, 55, 135, 189, 192, 5, 46, 189, 143, 241, 119, 61, 10, 26, 47, 189, 104, 62, 179, 189, 51, 15, 162, 189, 118, 83, 180, 60, 250, 139, 210, 188, 216, 254, 199, 60, 96, 223, 45, 187, 71, 89, 175, 189, 65, 128, 254, 187, 218, 114, 72, 61, 172, 82, 133, 61, 8, 209, 89, 189, 32, 195, 19, 189, 14, 84, 161, 188, 91, 16, 23, 188, 216, 119, 33, 189, 76, 33, 216, 189, 67, 13, 2, 189, 180, 194, 132, 61, 104, 203, 212, 188, 179, 186, 154, 59, 133, 74, 188, 188, 8, 171, 29, 189, 219, 90, 153, 189, 160, 244, 128, 61, 96, 147, 5, 188, 22, 52, 165, 189, 14, 95, 139, 189, 68, 246, 110, 189, 32, 178, 5, 188, 92, 130, 71, 61, 32, 27, 139, 60, 24, 41, 101, 61, 4, 36, 1, 59, 225, 144, 6, 61, 253, 129, 6, 61, 47, 187, 166, 189, 238, 151, 0, 190, 58, 52, 178, 188, 169, 172, 177, 189, 240, 155, 126, 61, 17, 212, 216, 186, 86, 195, 236, 188, 94, 144, 246, 188, 255, 224, 54, 189, 85, 236, 184, 189, 172, 225, 140, 188, 48, 198, 88, 61, 26, 245, 135, 189, 173, 134, 247, 188, 109, 103, 234, 189, 130, 216, 62, 189, 208, 130, 175, 187, 237, 56, 187, 187, 32, 97, 126, 187, 174, 222, 162, 58, 192, 241, 205, 59, 148, 236, 231, 60, 18, 1, 47, 189, 22, 162, 119, 189, 216, 249, 121, 189, 58, 225, 84, 189, 49, 137, 129, 189, 135, 120, 119, 189, 53, 179, 150, 60, 119, 232, 244, 188, 171, 231, 4, 61, 45, 212, 236, 188, 92, 115, 135, 61, 128, 190, 195, 58, 188, 0, 146, 61, 118, 26, 39, 188, 73, 166, 100, 189, 46, 130, 27, 61, 192, 60, 167, 58, 28, 30, 20, 189, 177, 53, 4, 189, 63, 2, 76, 188, 55, 125, 29, 188, 148, 159, 134, 189, 241, 194, 177, 188, 119, 120, 173, 189, 134, 158, 52, 61, 199, 144, 125, 60, 180, 52, 218, 189, 17, 10, 5, 60, 144, 41, 206, 189, 72, 24, 31, 189, 202, 125, 173, 188, 172, 194, 138, 61, 171, 160, 10, 61, 67, 10, 135, 189, 198, 253, 244, 60, 100, 101, 94, 189, 3, 28, 9, 189, 99, 1, 154, 189, 112, 22, 114, 60, 245, 22, 67, 61, 3, 104, 191, 188, 96, 81, 23, 189, 96, 133, 35, 60, 67, 21, 17, 190, 164, 132, 44, 189, 65, 86, 236, 189, 23, 16, 133, 189, 129, 114, 66, 189, 55, 18, 95, 187, 147, 117, 115, 189, 170, 178, 15, 189, 90, 32, 2, 189, 158, 24, 213, 189, 151, 8, 218, 60, 60, 235, 62, 189, 179, 79, 206, 189, 13, 87, 121, 189, 24, 14, 59, 187, 26, 161, 80, 189, 12, 31, 94, 61, 56, 233, 78, 61, 6, 230, 19, 61, 20, 229, 96, 189, 134, 160, 73, 61, 116, 52, 86, 189, 90, 159, 52, 61, 12, 136, 78, 189, 234, 33, 63, 61, 207, 1, 185, 189, 61, 67, 95, 188, 31, 208, 79, 189, 157, 154, 59, 189, 188, 152, 175, 188, 116, 95, 143, 61, 32, 63, 108, 187, 245, 15, 135, 189, 176, 167, 244, 187, 44, 235, 137, 188, 79, 10, 46, 61, 26, 32, 147, 189, 132, 121, 151, 188, 4, 126, 158, 60, 12, 8, 3, 61, 140, 209, 253, 188, 90, 38, 69, 188, 40, 252, 46, 61, 70, 178, 239, 187, 191, 197, 122, 60, 141, 220, 28, 189, 160, 245, 134, 185, 9, 212, 39, 187, 245, 42, 159, 188, 185, 148, 212, 60, 144, 178, 108, 189, 208, 207, 134, 59, 116, 181, 7, 61, 150, 148, 42, 188, 98, 224, 142, 189, 58, 213, 42, 61, 96, 131, 87, 188, 208, 82, 131, 60, 126, 50, 58, 61, 174, 60, 146, 189, 123, 30, 81, 189, 183, 124, 35, 189, 93, 96, 55, 61, 201, 4, 172, 188, 21, 140, 151, 189, 104, 209, 44, 60, 36, 157, 67, 189, 179, 95, 3, 189, 159, 106, 108, 189, 210, 234, 41, 61, 106, 156, 134, 189, 118, 25, 11, 188, 116, 140, 110, 189, 163, 54, 42, 60, 154, 133, 97, 189, 47, 92, 46, 189, 143, 180, 206, 58, 99, 53, 107, 60, 249, 185, 42, 189, 30, 237, 55, 61, 139, 115, 114, 189, 217, 163, 34, 189, 7, 255, 116, 186, 79, 77, 72, 189, 108, 138, 25, 61, 98, 105, 221, 59, 24, 125, 95, 188, 140, 69, 246, 188, 208, 178, 24, 188, 203, 48, 45, 188, 147, 176, 39, 61, 74, 138, 249, 59, 76, 95, 82, 61, 180, 46, 207, 189, 47, 46, 12, 189, 52, 60, 15, 61, 201, 95, 0, 189, 64, 191, 64, 59, 137, 0, 101, 189, 196, 118, 113, 189, 192, 61, 208, 60, 224, 194, 89, 187, 154, 178, 233, 60, 253, 192, 48, 61, 47, 192, 49, 189, 198, 217, 136, 189, 56, 35, 237, 60, 234, 50, 148, 188, 115, 42, 9, 189, 76, 52, 14, 189, 99, 77, 72, 61, 75, 52, 203, 189, 120, 180, 71, 57, 175, 66, 1, 190, 116, 86, 195, 189, 164, 234, 103, 189, 210, 8, 26, 61, 172, 169, 93, 187, 184, 155, 254, 188, 67, 165, 118, 189, 128, 53, 232, 188, 203, 199, 117, 189, 210, 188, 80, 189, 134, 200, 51, 61, 134, 143, 151, 189, 19, 47, 48, 188, 24, 147, 182, 184, 68, 252, 164, 61, 65, 215, 132, 190, 8, 137, 74, 62, 233, 124, 226, 61, 159, 164, 160, 189, 192, 114, 54, 62, 29, 166, 37, 62, 93, 219, 246, 60, 6, 76, 82, 61, 52, 116, 89, 62, 39, 15, 106, 62, 190, 142, 12, 62, 62, 161, 202, 61, 137, 167, 53, 188, 135, 108, 19, 62, 231, 16, 110, 189, 184, 120, 14, 188, 50, 53, 85, 189, 81, 245, 122, 189, 3, 1, 143, 60, 32, 179, 138, 61, 160, 252, 52, 61, 228, 73, 80, 189, 28, 185, 135, 61, 67, 220, 163, 189, 171, 228, 52, 189, 90, 159, 30, 61, 224, 32, 48, 60, 231, 167, 135, 62, 56, 121, 52, 59, 173, 235, 17, 190, 140, 227, 201, 61, 102, 230, 21, 61, 229, 221, 141, 189, 13, 91, 113, 61, 8, 81, 185, 61, 177, 38, 56, 62, 11, 190, 13, 61, 145, 68, 51, 59, 103, 40, 148, 62, 85, 150, 67, 62, 243, 144, 22, 58, 100, 211, 181, 189, 208, 195, 144, 59, 43, 49, 77, 62, 153, 11, 174, 61, 176, 237, 136, 187, 155, 20, 23, 189, 132, 241, 216, 60, 189, 57, 18, 62, 97, 177, 191, 60, 81, 56, 88, 62, 106, 80, 72, 189, 184, 11, 90, 61, 159, 104, 165, 189, 44, 243, 38, 190, 149, 155, 96, 189, 107, 223, 142, 189, 12, 181, 133, 60, 232, 218, 14, 61, 196, 82, 161, 60, 89, 142, 78, 189, 149, 125, 159, 188, 151, 41, 211, 189, 38, 252, 149, 190, 6, 150, 144, 189, 130, 222, 39, 188, 169, 4, 124, 61, 230, 214, 200, 188, 175, 99, 36, 62, 157, 189, 195, 60, 224, 104, 224, 60, 27, 14, 18, 62, 232, 49, 153, 61, 151, 161, 167, 62, 196, 165, 156, 187, 244, 111, 99, 62, 115, 107, 161, 188, 6, 46, 18, 62, 59, 145, 234, 190, 194, 82, 35, 189, 104, 70, 3, 188, 93, 221, 105, 189, 183, 3, 12, 58, 116, 106, 108, 189, 132, 35, 63, 189, 169, 142, 201, 188, 216, 12, 49, 61, 213, 127, 143, 188, 68, 63, 195, 188, 178, 35, 140, 189, 36, 162, 216, 60, 78, 252, 196, 188, 190, 207, 113, 190, 127, 228, 100, 189, 173, 76, 129, 189, 91, 44, 61, 189, 108, 88, 218, 60, 15, 37, 63, 60, 74, 156, 221, 60, 187, 120, 20, 190, 61, 77, 188, 61, 70, 188, 207, 189, 148, 89, 226, 189, 21, 74, 4, 189, 92, 15, 92, 61, 42, 90, 185, 189, 188, 82, 40, 189, 234, 93, 70, 61, 24, 41, 63, 62, 194, 174, 75, 189, 6, 161, 85, 189, 197, 254, 153, 189, 12, 124, 88, 187, 95, 21, 133, 189, 20, 88, 151, 60, 240, 144, 88, 61, 167, 167, 195, 61, 198, 109, 59, 61, 204, 169, 154, 188, 104, 39, 133, 60, 44, 163, 37, 189, 15, 162, 29, 189, 131, 169, 38, 60, 171, 128, 87, 189, 170, 23, 125, 60, 209, 182, 22, 189, 110, 245, 133, 189, 33, 150, 205, 190, 9, 177, 212, 189, 194, 133, 90, 190, 245, 196, 53, 188, 195, 236, 191, 188, 164, 163, 114, 61, 33, 248, 47, 189, 91, 44, 126, 60, 70, 252, 24, 62, 228, 117, 225, 189, 159, 60, 196, 61, 55, 161, 138, 189, 46, 56, 100, 61, 154, 19, 253, 61, 163, 1, 32, 62, 64, 85, 50, 188, 250, 222, 48, 188, 186, 225, 103, 189, 135, 95, 15, 189, 151, 205, 64, 190, 208, 82, 104, 61, 194, 255, 12, 61, 75, 238, 212, 188, 22, 15, 160, 188, 49, 187, 0, 190, 118, 112, 52, 189, 100, 183, 225, 189, 55, 100, 10, 61, 205, 234, 191, 60, 156, 60, 130, 190, 159, 176, 245, 189, 35, 177, 142, 188, 152, 234, 98, 60, 169, 59, 91, 189, 37, 96, 35, 189, 242, 102, 183, 190, 6, 139, 168, 61, 187, 155, 166, 188, 191, 107, 52, 61, 248, 162, 149, 190, 47, 123, 81, 62, 107, 125, 136, 189, 123, 239, 247, 61, 224, 177, 169, 187, 14, 238, 16, 61, 235, 158, 181, 62, 100, 71, 119, 61, 145, 138, 197, 189, 190, 233, 124, 61, 2, 17, 66, 190, 5, 119, 136, 61, 40, 45, 45, 190, 56, 38, 58, 189, 192, 251, 117, 59, 154, 161, 54, 61, 254, 249, 179, 61, 75, 229, 45, 189, 233, 27, 133, 189, 38, 114, 226, 188, 186, 200, 107, 60, 136, 98, 213, 60, 33, 186, 101, 61, 15, 54, 192, 60, 129, 67, 195, 189, 197, 84, 66, 190, 71, 22, 37, 190, 249, 112, 219, 189, 237, 86, 42, 190, 3, 181, 96, 189, 32, 116, 75, 188, 181, 221, 166, 190, 30, 102, 237, 188, 107, 167, 26, 62, 46, 165, 194, 61, 23, 50, 254, 189, 209, 31, 197, 61, 244, 234, 219, 60, 201, 224, 49, 61, 40, 53, 198, 188, 237, 75, 16, 62, 202, 217, 132, 188, 46, 163, 59, 189, 31, 175, 106, 189, 48, 110, 100, 190, 132, 122, 15, 61, 172, 159, 106, 61, 8, 206, 141, 190, 32, 48, 7, 189, 160, 247, 26, 190, 100, 243, 139, 189, 78, 28, 203, 61, 106, 188, 123, 61, 140, 6, 54, 190, 55, 48, 231, 189, 13, 45, 193, 189, 124, 241, 144, 189, 128, 90, 152, 188, 0, 254, 66, 59, 51, 64, 171, 61, 161, 55, 190, 61, 166, 249, 133, 190, 96, 193, 142, 61, 56, 145, 248, 188, 194, 15, 149, 60, 132, 211, 173, 62, 190, 46, 74, 189, 222, 105, 164, 62, 208, 136, 163, 59, 130, 86, 140, 190, 141, 94, 125, 62, 94, 187, 174, 188, 255, 96, 221, 188, 49, 118, 163, 61, 153, 41, 234, 189, 27, 241, 171, 62, 47, 224, 105, 190, 32, 57, 7, 188, 15, 234, 32, 188, 102, 124, 23, 62, 205, 15, 63, 62, 134, 238, 75, 189, 40, 167, 59, 60, 18, 229, 83, 61, 204, 179, 155, 61, 59, 29, 2, 189, 198, 45, 64, 61, 78, 155, 107, 189, 53, 129, 7, 189, 173, 4, 41, 190, 95, 114, 49, 189, 125, 73, 100, 189, 209, 63, 108, 188, 226, 35, 228, 59, 52, 195, 27, 188, 77, 21, 223, 61, 32, 67, 141, 189, 137, 133, 176, 189, 28, 168, 181, 61, 107, 118, 20, 188, 89, 36, 98, 189, 82, 143, 15, 61, 136, 102, 13, 62, 239, 164, 8, 189, 101, 216, 90, 61, 52, 195, 195, 187, 52, 244, 49, 189, 152, 165, 88, 61, 2, 197, 42, 60, 118, 151, 145, 189, 182, 40, 63, 61, 83, 202, 222, 189, 144, 187, 13, 60, 114, 176, 176, 59, 209, 186, 95, 187, 139, 120, 13, 62, 18, 147, 176, 60, 161, 127, 119, 62, 197, 85, 161, 61, 170, 218, 159, 60, 101, 179, 168, 59, 232, 251, 72, 61, 188, 161, 51, 189, 60, 222, 174, 60, 72, 221, 100, 60, 244, 208, 41, 62, 242, 24, 172, 188, 91, 242, 132, 61, 152, 38, 8, 190, 74, 160, 125, 62, 244, 135, 72, 60, 137, 27, 170, 61, 147, 34, 57, 189, 245, 28, 43, 61, 223, 82, 87, 189, 208, 63, 93, 61, 113, 68, 186, 189, 172, 229, 208, 60, 11, 79, 7, 62, 103, 98, 147, 188, 9, 31, 32, 189, 142, 108, 94, 189, 146, 139, 93, 61, 131, 53, 209, 61, 220, 106, 254, 60, 220, 147, 223, 60, 85, 117, 80, 189, 64, 189, 137, 61, 106, 37, 9, 61, 27, 188, 20, 189, 213, 60, 195, 60, 126, 196, 147, 189, 246, 50, 242, 189, 108, 143, 126, 62, 116, 95, 166, 187, 56, 199, 241, 189, 12, 64, 193, 61, 13, 255, 130, 187, 159, 254, 168, 190, 46, 236, 48, 62, 109, 58, 165, 189, 153, 157, 98, 190, 175, 46, 27, 190, 135, 38, 174, 61, 39, 237, 144, 190, 132, 23, 230, 189, 140, 98, 82, 189, 147, 5, 19, 190, 231, 236, 139, 190, 26, 146, 51, 61, 184, 229, 21, 188, 8, 229, 115, 60, 140, 55, 237, 185, 136, 55, 202, 60, 172, 240, 29, 61, 16, 213, 197, 61, 68, 181, 97, 189, 206, 171, 131, 61, 247, 201, 57, 189, 49, 125, 187, 187, 219, 56, 198, 61, 95, 200, 167, 61, 186, 76, 239, 185, 160, 63, 93, 60, 133, 84, 210, 61, 112, 89, 33, 188, 30, 174, 11, 61, 121, 143, 36, 189, 234, 174, 156, 189, 51, 182, 182, 190, 67, 102, 247, 61, 180, 57, 23, 189, 221, 13, 167, 61, 20, 177, 15, 188, 125, 91, 179, 60, 184, 229, 43, 190, 162, 62, 64, 189, 148, 26, 95, 61, 36, 211, 35, 60, 224, 177, 68, 187, 153, 126, 204, 188, 152, 99, 15, 190, 112, 227, 89, 62, 255, 121, 102, 190, 76, 173, 88, 189, 0, 141, 165, 186, 158, 248, 68, 61, 246, 239, 138, 188, 113, 232, 13, 190, 106, 143, 144, 61, 108, 97, 92, 61, 104, 136, 104, 60, 241, 30, 12, 189, 228, 59, 155, 60, 71, 231, 44, 188, 13, 242, 73, 60, 54, 49, 12, 190, 133, 41, 37, 188, 26, 92, 227, 61, 6, 206, 122, 61, 69, 239, 143, 59, 142, 43, 150, 189, 130, 205, 2, 190, 72, 30, 196, 61, 58, 111, 180, 60, 99, 156, 37, 190, 7, 7, 193, 60, 162, 15, 163, 189, 21, 115, 96, 189, 51, 12, 188, 58, 33, 52, 84, 62, 249, 138, 17, 190, 189, 78, 124, 62, 218, 172, 145, 189, 110, 56, 177, 189, 24, 85, 85, 61, 126, 133, 13, 190, 36, 134, 88, 61, 22, 191, 149, 188, 17, 0, 136, 190, 24, 207, 65, 60, 201, 85, 53, 188, 201, 69, 129, 189, 166, 207, 29, 190, 114, 105, 31, 61, 57, 98, 165, 60, 198, 74, 245, 60, 252, 126, 208, 61, 187, 53, 10, 62, 16, 147, 119, 188, 190, 230, 132, 61, 46, 161, 118, 61, 205, 186, 204, 188, 98, 67, 89, 190, 47, 4, 138, 61, 84, 7, 32, 58, 44, 198, 49, 190, 195, 28, 36, 62, 191, 111, 30, 189, 110, 207, 164, 189, 5, 55, 140, 189, 243, 254, 190, 189, 17, 229, 140, 62, 88, 111, 1, 60, 107, 11, 146, 189, 30, 226, 112, 189, 89, 228, 77, 190, 174, 0, 183, 61, 74, 204, 215, 61, 178, 179, 18, 189, 167, 239, 66, 189, 255, 238, 242, 189, 147, 149, 148, 190, 205, 167, 57, 61, 208, 21, 140, 61, 47, 141, 184, 61, 170, 106, 37, 189, 128, 244, 218, 187, 180, 98, 47, 189, 29, 27, 207, 188, 109, 178, 84, 60, 139, 99, 19, 190, 225, 11, 135, 189, 33, 65, 93, 62, 142, 172, 83, 189, 7, 153, 15, 189, 207, 204, 165, 61, 119, 194, 3, 190, 159, 8, 218, 187, 100, 56, 16, 62, 61, 98, 139, 62, 79, 115, 18, 61, 243, 194, 57, 62, 143, 91, 197, 62, 154, 221, 83, 62, 33, 90, 185, 59, 9, 3, 71, 62, 182, 244, 30, 61, 0, 157, 55, 59, 144, 95, 134, 187, 138, 232, 102, 60, 2, 169, 36, 61, 0, 104, 6, 187, 84, 54, 54, 188, 162, 37, 248, 188, 106, 183, 24, 189, 42, 150, 126, 189, 3, 192, 61, 62, 110, 91, 164, 61, 228, 187, 15, 61, 223, 73, 238, 187, 253, 56, 234, 188, 139, 16, 242, 188, 144, 184, 231, 59, 70, 37, 179, 188, 130, 255, 182, 189, 190, 236, 184, 62, 79, 151, 222, 189, 150, 183, 151, 61, 53, 247, 140, 57, 186, 10, 142, 62, 191, 152, 191, 61, 195, 158, 72, 60, 248, 225, 55, 60, 168, 118, 93, 60, 146, 100, 166, 190, 95, 42, 48, 62, 72, 15, 199, 188, 37, 251, 122, 188, 165, 49, 235, 60, 112, 59, 167, 190, 38, 182, 76, 61, 118, 35, 7, 63, 208, 176, 160, 59, 12, 143, 128, 61, 81, 14, 117, 62, 139, 167, 34, 61, 139, 142, 17, 189, 172, 214, 133, 189, 2, 141, 49, 61, 79, 56, 74, 61, 80, 111, 221, 60, 119, 70, 219, 188, 141, 225, 136, 189, 156, 129, 114, 61, 158, 244, 52, 62, 70, 214, 242, 61, 2, 34, 33, 187, 185, 254, 188, 62, 238, 65, 162, 189, 7, 201, 217, 189, 103, 169, 211, 189, 41, 1, 1, 189, 53, 68, 71, 59, 253, 67, 248, 60, 31, 182, 243, 60, 84, 222, 66, 62, 187, 141, 49, 190, 255, 32, 197, 61, 209, 159, 12, 61, 145, 2, 239, 188, 106, 235, 238, 188, 96, 164, 105, 187, 44, 147, 62, 188, 68, 61, 121, 61, 68, 241, 42, 188, 112, 121, 199, 188, 10, 157, 201, 60, 192, 240, 160, 187, 131, 175, 129, 189, 111, 105, 130, 187, 25, 67, 43, 61, 44, 31, 110, 189, 176, 124, 225, 189, 128, 252, 55, 189, 70, 11, 205, 189, 204, 134, 128, 189, 52, 183, 94, 61, 140, 75, 35, 61, 141, 56, 138, 189, 151, 155, 116, 59, 85, 91, 236, 60, 243, 139, 56, 189, 10, 251, 186, 188, 162, 115, 28, 62, 144, 24, 146, 190, 185, 7, 134, 188, 106, 47, 235, 61, 198, 180, 139, 61, 129, 177, 184, 61, 119, 177, 254, 189, 40, 76, 121, 61, 213, 240, 210, 189, 247, 92, 189, 61, 175, 132, 66, 62, 140, 202, 215, 190, 76, 105, 253, 61, 186, 81, 70, 189, 223, 233, 0, 61, 112, 138, 39, 62, 204, 76, 165, 61, 25, 197, 100, 188, 206, 74, 5, 61, 160, 20, 109, 61, 157, 251, 205, 188, 3, 4, 59, 189, 183, 87, 178, 186, 241, 97, 141, 189, 200, 208, 147, 189, 198, 104, 235, 61, 144, 18, 118, 62, 243, 123, 159, 190, 54, 53, 241, 61, 232, 85, 5, 189, 179, 165, 20, 191, 212, 163, 7, 190, 220, 0, 38, 60, 60, 144, 184, 190, 70, 26, 237, 190, 92, 222, 74, 59, 120, 192, 182, 189, 250, 224, 150, 190, 175, 145, 221, 189, 243, 77, 166, 190, 182, 50, 133, 189, 170, 204, 53, 189, 40, 4, 12, 60, 40, 40, 190, 188, 181, 34, 8, 190, 205, 197, 79, 189, 68, 163, 138, 61, 80, 63, 190, 189, 64, 65, 63, 61, 146, 44, 210, 189, 242, 242, 18, 60, 158, 171, 86, 190, 88, 193, 40, 61, 8, 98, 149, 190, 42, 212, 21, 62, 96, 97, 0, 62, 6, 13, 129, 61, 208, 196, 178, 187, 174, 64, 69, 189, 6, 62, 32, 188, 208, 179, 111, 190, 72, 23, 178, 189, 173, 151, 155, 188, 37, 115, 14, 190, 221, 105, 44, 190, 21, 247, 29, 190, 145, 213, 171, 60, 248, 250, 24, 60, 15, 233, 109, 189, 89, 230, 132, 189, 92, 123, 241, 189, 100, 130, 140, 189, 40, 157, 5, 190, 150, 108, 172, 189, 151, 208, 132, 62, 105, 108, 156, 186, 109, 153, 129, 190, 90, 31, 225, 188, 147, 140, 170, 61, 206, 236, 123, 61, 158, 2, 4, 62, 190, 73, 4, 189, 202, 95, 253, 188, 8, 133, 143, 61, 51, 36, 12, 189, 133, 109, 102, 58, 26, 25, 177, 61, 22, 178, 74, 189, 154, 238, 92, 188, 252, 12, 66, 190, 160, 173, 149, 62, 117, 63, 135, 189, 67, 132, 106, 62, 26, 222, 129, 61, 235, 47, 7, 190, 136, 9, 122, 190, 60, 195, 110, 188, 237, 175, 215, 189, 208, 78, 24, 61, 12, 98, 188, 190, 104, 49, 254, 186, 24, 109, 237, 61, 231, 87, 43, 189, 17, 79, 197, 190, 175, 103, 224, 189, 211, 36, 2, 60, 194, 83, 132, 189, 176, 67, 221, 59, 225, 143, 247, 58, 240, 56, 22, 61, 16, 111, 193, 59, 114, 222, 171, 190, 254, 93, 249, 60, 47, 206, 154, 60, 193, 128, 155, 189, 212, 102, 103, 190, 198, 25, 106, 189, 212, 226, 84, 190, 71, 107, 168, 60, 251, 240, 221, 188, 223, 60, 219, 189, 186, 123, 141, 189, 148, 103, 50, 61, 4, 71, 239, 188, 9, 32, 57, 189, 85, 153, 167, 190, 126, 128, 26, 189, 20, 185, 129, 61, 131, 39, 30, 61, 111, 238, 224, 188, 121, 180, 19, 189, 107, 132, 234, 189, 200, 120, 132, 61, 172, 184, 134, 190, 60, 148, 133, 189, 24, 100, 102, 61, 111, 246, 35, 189, 89, 134, 144, 190, 165, 84, 71, 189, 228, 9, 34, 62, 202, 5, 129, 61, 220, 66, 244, 60, 113, 143, 254, 188, 132, 222, 8, 62, 160, 209, 135, 61, 16, 254, 238, 57, 164, 101, 85, 61, 144, 136, 128, 60, 86, 102, 202, 187, 254, 54, 69, 61, 224, 63, 36, 61, 199, 150, 78, 61, 127, 185, 196, 187, 193, 125, 27, 190, 217, 80, 78, 62, 210, 218, 113, 189, 199, 97, 178, 61, 30, 233, 89, 61, 66, 39, 149, 189, 160, 238, 232, 189, 236, 163, 124, 61, 84, 54, 10, 62, 47, 170, 133, 189, 71, 7, 241, 61, 3, 108, 41, 61, 162, 199, 119, 61, 108, 107, 60, 188, 138, 254, 71, 190, 217, 99, 103, 60, 141, 24, 152, 189, 88, 102, 170, 60, 36, 40, 174, 60, 5, 91, 143, 60, 101, 20, 135, 189, 219, 98, 77, 189, 57, 183, 194, 61, 47, 214, 235, 60, 43, 151, 8, 189, 77, 166, 134, 189, 243, 71, 206, 189, 228, 29, 1, 60, 180, 58, 121, 190, 9, 224, 225, 60, 50, 124, 101, 187, 192, 2, 176, 60, 180, 71, 181, 188, 237, 155, 108, 189, 182, 228, 165, 61, 140, 110, 244, 189, 48, 218, 5, 190, 248, 166, 120, 61, 148, 181, 241, 60, 117, 125, 162, 61, 43, 240, 18, 190, 220, 203, 13, 61, 39, 138, 118, 61, 136, 36, 224, 188, 233, 92, 196, 189, 35, 17, 33, 62, 128, 243, 218, 58, 191, 19, 88, 189, 230, 24, 7, 61, 168, 20, 64, 61, 165, 29, 54, 62, 68, 79, 8, 62, 128, 132, 4, 59, 19, 180, 80, 60, 10, 67, 88, 62, 114, 158, 246, 61, 106, 168, 119, 61, 192, 98, 143, 186, 88, 213, 124, 187, 122, 43, 49, 61, 196, 192, 156, 188, 102, 103, 158, 188, 139, 57, 77, 189, 21, 178, 138, 61, 174, 217, 85, 190, 152, 52, 225, 188, 64, 166, 77, 190, 73, 35, 27, 61, 72, 43, 239, 188, 218, 202, 131, 189, 88, 191, 248, 189, 57, 104, 101, 61, 195, 128, 25, 62, 187, 37, 142, 190, 189, 11, 101, 61, 122, 127, 86, 62, 66, 134, 28, 190, 246, 117, 3, 62, 238, 92, 28, 189, 143, 229, 194, 61, 186, 58, 124, 189, 96, 245, 93, 59, 194, 178, 131, 61, 69, 146, 73, 190, 201, 215, 142, 189, 200, 242, 237, 60, 91, 181, 150, 61, 52, 70, 232, 188, 219, 245, 23, 188, 216, 177, 104, 61, 135, 10, 153, 189, 120, 181, 14, 189, 177, 206, 122, 189, 128, 11, 191, 190, 71, 47, 148, 190, 62, 252, 146, 189, 218, 154, 22, 61, 135, 249, 103, 189, 180, 14, 173, 58, 91, 27, 8, 190, 246, 224, 1, 190, 165, 61, 117, 189, 37, 181, 30, 60, 150, 242, 25, 62, 239, 114, 114, 186, 210, 157, 22, 187, 0, 97, 87, 62, 150, 49, 82, 189, 64, 43, 208, 61, 92, 38, 232, 60, 166, 66, 22, 189, 83, 242, 241, 189, 18, 44, 147, 61, 219, 70, 2, 190, 31, 52, 25, 61, 160, 115, 242, 61, 48, 100, 230, 60, 208, 193, 238, 60, 138, 72, 231, 189, 221, 84, 90, 189, 204, 167, 128, 61, 94, 70, 100, 189, 252, 12, 47, 188, 119, 219, 107, 61, 196, 82, 114, 188, 198, 15, 52, 189, 150, 160, 222, 60, 154, 73, 138, 189, 219, 15, 28, 189, 44, 42, 147, 189, 188, 88, 193, 61, 65, 204, 163, 189, 140, 157, 189, 189, 107, 189, 23, 190, 217, 137, 159, 189, 215, 44, 80, 189, 68, 163, 153, 61, 194, 199, 137, 62, 10, 113, 179, 61, 235, 157, 137, 189, 15, 97, 137, 190, 16, 150, 246, 188, 242, 54, 63, 62, 177, 117, 150, 189, 214, 78, 66, 61, 251, 28, 132, 189, 0, 111, 101, 59, 159, 225, 6, 62, 52, 222, 221, 60, 22, 196, 233, 188, 115, 243, 11, 61, 0, 137, 28, 60, 62, 237, 196, 189, 116, 253, 60, 188, 208, 106, 191, 62, 200, 158, 217, 60, 163, 5, 101, 190, 109, 184, 156, 61, 140, 144, 11, 190, 145, 19, 210, 189, 112, 4, 242, 60, 56, 69, 68, 60, 78, 159, 67, 61, 185, 143, 214, 62, 90, 34, 245, 61, 43, 125, 53, 61, 47, 200, 146, 187, 40, 2, 54, 61, 93, 124, 183, 61, 215, 144, 61, 189, 69, 197, 191, 189, 188, 105, 115, 61, 194, 60, 41, 61, 132, 220, 254, 189, 6, 54, 80, 189, 214, 166, 53, 189, 161, 246, 64, 188, 91, 139, 160, 189, 99, 23, 231, 60, 194, 69, 40, 61, 238, 233, 91, 189, 244, 99, 94, 60, 123, 192, 210, 60, 110, 72, 101, 61, 55, 32, 91, 189, 167, 97, 77, 61, 43, 18, 77, 61, 94, 47, 200, 188, 98, 212, 83, 61, 196, 55, 184, 60, 28, 23, 140, 189, 153, 205, 237, 60, 72, 79, 133, 62, 133, 81, 130, 61, 80, 171, 13, 61, 203, 160, 238, 189, 50, 113, 60, 58, 52, 25, 156, 190, 233, 136, 55, 189, 163, 89, 59, 60, 110, 64, 23, 62, 120, 124, 151, 61, 55, 33, 225, 188, 99, 56, 61, 190, 109, 53, 169, 190, 158, 136, 130, 190, 225, 20, 234, 189, 83, 142, 120, 190, 121, 72, 242, 188, 34, 240, 142, 188, 139, 76, 7, 189, 235, 193, 75, 62, 120, 224, 21, 188, 236, 94, 245, 60, 121, 15, 39, 190, 99, 181, 62, 189, 173, 136, 169, 187, 26, 188, 221, 188, 233, 187, 160, 61, 24, 96, 174, 61, 162, 93, 144, 189, 200, 154, 3, 62, 80, 145, 75, 62, 170, 148, 86, 60, 230, 202, 65, 189, 234, 169, 93, 189, 3, 42, 43, 61, 207, 176, 56, 61, 19, 219, 249, 61, 88, 218, 163, 189, 99, 180, 205, 187, 34, 201, 139, 62, 112, 132, 171, 62, 188, 67, 90, 189, 180, 106, 99, 190, 198, 169, 69, 189, 183, 24, 194, 60, 66, 69, 139, 189, 248, 2, 94, 61, 38, 132, 241, 60, 97, 76, 174, 186, 166, 48, 72, 62, 147, 43, 160, 61, 160, 198, 159, 61, 162, 101, 138, 189, 211, 118, 212, 187, 135, 40, 231, 60, 110, 214, 111, 189, 26, 161, 144, 58, 194, 245, 99, 61, 152, 199, 35, 60, 249, 23, 178, 60, 0, 6, 105, 60, 138, 60, 239, 188, 248, 173, 209, 188, 104, 253, 68, 188, 107, 87, 254, 187, 133, 216, 165, 60, 62, 91, 253, 61, 114, 77, 126, 189, 4, 8, 89, 60, 55, 189, 29, 62, 137, 12, 57, 190, 131, 140, 91, 61, 240, 240, 122, 188, 13, 47, 228, 187, 28, 40, 190, 61, 59, 109, 64, 190, 240, 226, 100, 189, 188, 145, 120, 61, 183, 41, 226, 189, 120, 152, 248, 61, 160, 110, 119, 61, 164, 251, 155, 60, 36, 22, 151, 60, 62, 89, 125, 62, 86, 69, 182, 188, 90, 178, 130, 189, 240, 60, 75, 189, 192, 191, 104, 61, 218, 166, 202, 189, 30, 215, 137, 61, 67, 56, 200, 188, 104, 122, 164, 61, 247, 163, 180, 189, 0, 227, 156, 60, 64, 31, 40, 189, 203, 129, 132, 190, 64, 116, 128, 186, 210, 42, 132, 61, 247, 99, 8, 60, 250, 30, 117, 190, 176, 90, 50, 190, 154, 44, 54, 61, 77, 99, 52, 189, 82, 113, 86, 190, 149, 182, 161, 61, 128, 49, 182, 188, 170, 36, 75, 190, 32, 18, 17, 188, 100, 212, 152, 59, 41, 136, 41, 62, 148, 60, 117, 189, 242, 220, 16, 190, 30, 230, 235, 188, 224, 9, 99, 62, 144, 144, 96, 189, 95, 175, 205, 60, 32, 234, 45, 187, 66, 168, 187, 189, 250, 93, 101, 190, 40, 190, 145, 190, 111, 145, 116, 60, 250, 238, 58, 189, 128, 205, 229, 188, 41, 166, 13, 188, 128, 144, 47, 186, 63, 139, 88, 61, 38, 163, 209, 60, 246, 164, 88, 188, 51, 137, 107, 62, 227, 161, 216, 188, 214, 166, 135, 189, 144, 1, 24, 62, 233, 90, 110, 61, 108, 94, 223, 189, 65, 45, 199, 60, 162, 49, 241, 59, 131, 221, 29, 190, 62, 80, 125, 190, 80, 151, 103, 61, 188, 128, 21, 62, 193, 5, 2, 190, 27, 61, 15, 62, 148, 179, 11, 189, 212, 240, 18, 190, 2, 72, 79, 189, 166, 188, 8, 189, 92, 216, 244, 60, 194, 154, 74, 189, 153, 48, 89, 189, 132, 248, 128, 189, 52, 34, 171, 187, 96, 209, 207, 59, 174, 173, 70, 61, 244, 133, 111, 61, 215, 16, 211, 61, 62, 21, 184, 60, 43, 203, 163, 58, 9, 140, 103, 61, 141, 213, 74, 62, 9, 231, 73, 189, 201, 213, 3, 189, 200, 118, 60, 60, 98, 136, 0, 60, 24, 130, 111, 190, 104, 245, 144, 188, 110, 177, 9, 189, 178, 42, 20, 62, 196, 3, 157, 60, 168, 166, 22, 62, 97, 214, 50, 189, 119, 160, 219, 61, 48, 185, 51, 60, 225, 164, 155, 62, 49, 58, 77, 61, 187, 88, 125, 189, 160, 219, 203, 61, 170, 52, 185, 188, 59, 239, 172, 62, 158, 94, 158, 61, 30, 245, 189, 189, 52, 246, 46, 61, 95, 205, 29, 189, 32, 38, 73, 61, 182, 165, 49, 189, 111, 155, 198, 189, 192, 212, 110, 61, 48, 99, 59, 189, 110, 66, 66, 61, 15, 123, 14, 189, 167, 194, 130, 61, 233, 96, 48, 188, 141, 197, 149, 189, 122, 50, 33, 187, 197, 157, 46, 61, 159, 197, 29, 189, 233, 48, 110, 61, 249, 222, 200, 61, 243, 142, 158, 60, 249, 185, 223, 189, 122, 88, 20, 189, 176, 100, 100, 62, 129, 69, 10, 62, 159, 177, 77, 62, 251, 5, 159, 61, 224, 210, 91, 62, 44, 231, 7, 62, 198, 91, 229, 188, 70, 133, 46, 190, 201, 112, 177, 188, 128, 23, 106, 61, 238, 212, 248, 188, 204, 97, 189, 189, 25, 13, 98, 189, 40, 53, 128, 61, 76, 230, 156, 61, 12, 69, 139, 61, 125, 169, 35, 61, 204, 164, 154, 188, 32, 158, 191, 189, 116, 195, 132, 188, 102, 33, 80, 190, 129, 0, 172, 58, 176, 224, 1, 62, 81, 230, 222, 188, 16, 181, 177, 59, 108, 94, 126, 61, 194, 175, 6, 189, 43, 238, 21, 62, 24, 165, 43, 190, 21, 213, 193, 61, 115, 140, 197, 60, 137, 21, 152, 188, 97, 124, 27, 189, 231, 196, 164, 188, 89, 234, 29, 186, 192, 145, 146, 189, 188, 112, 97, 57, 184, 228, 91, 189, 0, 48, 37, 61, 250, 46, 181, 61, 6, 229, 51, 190, 114, 9, 87, 62, 42, 255, 33, 190, 48, 219, 191, 189, 13, 224, 143, 189, 104, 114, 155, 188, 47, 218, 172, 61, 125, 249, 101, 62, 22, 27, 143, 189, 116, 2, 229, 188, 96, 158, 124, 188, 162, 219, 8, 61, 81, 45, 132, 189, 226, 243, 43, 189, 113, 76, 129, 60, 91, 121, 22, 61, 182, 226, 218, 189, 77, 5, 242, 61, 55, 161, 245, 189, 158, 86, 65, 62, 231, 141, 0, 189, 107, 14, 17, 190, 143, 234, 185, 61, 179, 114, 139, 61, 188, 45, 129, 62, 179, 30, 43, 190, 131, 90, 172, 188, 8, 190, 162, 61, 67, 251, 53, 190, 235, 159, 234, 189, 111, 79, 4, 189, 29, 162, 188, 61, 172, 191, 52, 61, 120, 144, 10, 189, 224, 248, 32, 188, 65, 21, 224, 189, 128, 99, 12, 59, 12, 136, 59, 189, 56, 115, 76, 189, 44, 18, 207, 188, 175, 191, 96, 61, 160, 230, 255, 59, 100, 64, 113, 60, 238, 189, 192, 61, 6, 179, 217, 189, 62, 179, 17, 61, 181, 233, 159, 189, 77, 155, 38, 188, 168, 210, 39, 189, 226, 160, 138, 61, 68, 148, 204, 61, 87, 139, 170, 190, 138, 235, 7, 189, 137, 97, 235, 61, 176, 78, 7, 189, 45, 54, 109, 190, 46, 254, 50, 188, 162, 177, 10, 188, 246, 167, 97, 62, 144, 125, 92, 61, 231, 190, 33, 61, 188, 56, 185, 61, 200, 58, 4, 188, 53, 53, 205, 61, 95, 44, 72, 60, 241, 14, 225, 61, 105, 81, 34, 190, 168, 83, 205, 190, 208, 49, 135, 187, 233, 132, 124, 61, 172, 237, 92, 189, 68, 96, 69, 61, 148, 236, 33, 188, 56, 237, 129, 61, 40, 219, 123, 60, 94, 103, 8, 189, 192, 161, 144, 59, 63, 128, 159, 189, 48, 221, 152, 189, 146, 214, 104, 60, 114, 48, 145, 189, 86, 239, 166, 60, 2, 221, 239, 61, 105, 179, 134, 60, 166, 74, 24, 61, 60, 148, 169, 189, 180, 83, 152, 61, 182, 217, 155, 61, 19, 184, 32, 62, 179, 64, 32, 62, 244, 176, 23, 190, 222, 240, 67, 61, 232, 109, 97, 190, 54, 95, 80, 188, 20, 99, 86, 189, 150, 196, 156, 62, 194, 223, 138, 187, 85, 185, 154, 188, 110, 100, 187, 188, 248, 10, 67, 60, 217, 105, 115, 189, 192, 92, 244, 59, 85, 145, 61, 190, 44, 159, 254, 188, 61, 154, 241, 186, 102, 142, 214, 188, 84, 126, 193, 61, 66, 99, 172, 61, 39, 26, 10, 62, 77, 221, 145, 189, 43, 218, 206, 189, 171, 159, 27, 189, 32, 139, 106, 61, 28, 68, 77, 61, 183, 91, 201, 61, 246, 31, 18, 62, 244, 0, 1, 190, 181, 188, 226, 61, 37, 23, 152, 189, 180, 96, 4, 62, 137, 230, 20, 61, 134, 120, 124, 189, 10, 192, 204, 61, 72, 104, 167, 60, 22, 27, 74, 189, 4, 188, 15, 62, 64, 30, 55, 187, 86, 168, 65, 61, 120, 224, 204, 60, 173, 171, 231, 61, 62, 224, 148, 61, 70, 130, 0, 191, 130, 31, 55, 189, 59, 161, 78, 61, 49, 255, 54, 190, 77, 249, 42, 190, 126, 223, 148, 189, 168, 158, 68, 189, 142, 79, 85, 61, 9, 149, 2, 189, 174, 168, 28, 61, 79, 224, 80, 189, 249, 153, 131, 61, 242, 67, 20, 59, 211, 204, 44, 62, 70, 65, 255, 189, 204, 183, 37, 190, 17, 254, 231, 61, 35, 124, 40, 189, 231, 91, 117, 188, 86, 87, 14, 190, 248, 236, 186, 60, 32, 40, 9, 190, 162, 225, 77, 190, 220, 30, 188, 189, 106, 205, 73, 190, 65, 201, 11, 190, 20, 90, 27, 62, 86, 85, 207, 189, 13, 238, 159, 56, 153, 122, 166, 189, 163, 255, 1, 189, 3, 90, 123, 189, 132, 25, 76, 189, 157, 24, 119, 189, 142, 87, 249, 188, 52, 148, 209, 189, 54, 34, 29, 189, 240, 21, 61, 189, 154, 152, 12, 189, 166, 75, 21, 62, 3, 20, 173, 61, 14, 252, 234, 189, 104, 39, 174, 62, 237, 205, 254, 188, 123, 201, 18, 188, 80, 27, 130, 187, 103, 244, 57, 60, 25, 175, 17, 61, 130, 255, 170, 190, 254, 109, 205, 189, 249, 82, 181, 188, 211, 97, 98, 188, 104, 244, 135, 190, 8, 50, 33, 190, 174, 49, 2, 189, 72, 59, 53, 189, 76, 72, 5, 61, 61, 37, 167, 61, 66, 54, 65, 190, 248, 153, 140, 60, 74, 254, 183, 61, 169, 24, 153, 62, 166, 42, 10, 62, 115, 35, 241, 60, 13, 193, 149, 188, 192, 221, 119, 61, 192, 206, 149, 187, 123, 44, 0, 189, 28, 47, 189, 188, 62, 235, 160, 188, 184, 127, 139, 61, 34, 172, 222, 188, 68, 58, 64, 189, 224, 254, 218, 187, 93, 122, 204, 188, 80, 207, 69, 61, 35, 253, 236, 188, 13, 142, 194, 62, 155, 233, 38, 189, 17, 217, 49, 60, 193, 44, 183, 61, 198, 193, 130, 188, 161, 28, 254, 189, 135, 179, 132, 61, 172, 63, 168, 188, 35, 110, 117, 189, 17, 97, 29, 60, 173, 9, 86, 62, 145, 107, 91, 190, 209, 20, 27, 190, 235, 175, 7, 190, 127, 42, 18, 62, 133, 167, 235, 189, 213, 213, 19, 61, 75, 151, 134, 189, 230, 39, 86, 61, 248, 51, 129, 62, 104, 179, 99, 189, 110, 142, 226, 59, 188, 95, 172, 62, 202, 124, 82, 61, 167, 100, 73, 61, 213, 75, 146, 189, 78, 121, 83, 62, 140, 202, 229, 61, 80, 247, 65, 190, 57, 126, 101, 62, 49, 29, 216, 61, 92, 31, 88, 60, 52, 126, 107, 61, 251, 117, 102, 189, 13, 150, 170, 61, 79, 217, 77, 60, 23, 80, 31, 62, 31, 74, 160, 60, 49, 212, 69, 61, 51, 143, 42, 189, 222, 232, 254, 189, 117, 128, 35, 189, 103, 241, 43, 189, 0, 50, 56, 61, 31, 177, 47, 62, 162, 65, 187, 190, 136, 147, 54, 60, 203, 217, 199, 61, 254, 234, 129, 61, 117, 240, 166, 62, 162, 2, 89, 190, 217, 208, 113, 188, 134, 150, 43, 189, 161, 81, 191, 60, 228, 122, 24, 190, 164, 232, 187, 60, 219, 26, 208, 60, 5, 60, 40, 189, 20, 163, 147, 188, 164, 91, 109, 189, 116, 195, 117, 61, 90, 201, 192, 60, 233, 218, 15, 61, 220, 76, 144, 189, 111, 7, 43, 188, 73, 147, 199, 61, 122, 226, 108, 189, 150, 182, 20, 190, 27, 160, 58, 189, 238, 226, 37, 190, 57, 212, 135, 61, 138, 245, 61, 61, 87, 230, 146, 190, 242, 25, 77, 190, 154, 20, 146, 190, 96, 10, 228, 189, 9, 45, 60, 60, 127, 178, 179, 187, 168, 36, 50, 190, 175, 59, 12, 62, 210, 78, 147, 189, 81, 35, 232, 60, 197, 11, 135, 189, 193, 34, 167, 60, 124, 118, 80, 61, 82, 76, 233, 188, 249, 27, 62, 190, 0, 185, 254, 60, 183, 9, 177, 61, 87, 224, 176, 60, 147, 84, 53, 190, 33, 246, 202, 60, 54, 216, 186, 189, 54, 220, 228, 61, 65, 203, 37, 62, 237, 200, 1, 189, 89, 192, 138, 189, 208, 3, 30, 61, 141, 210, 100, 189, 25, 7, 12, 190, 33, 0, 131, 190, 155, 29, 155, 61, 56, 186, 127, 61, 118, 206, 96, 190, 95, 112, 88, 61, 171, 90, 59, 189, 131, 240, 8, 190, 118, 255, 31, 61, 241, 252, 225, 190, 191, 101, 147, 62, 114, 219, 199, 188, 174, 123, 6, 62, 30, 151, 76, 190, 14, 207, 12, 190, 62, 10, 60, 62, 192, 232, 37, 61, 171, 183, 138, 189, 61, 241, 116, 189, 166, 72, 104, 190, 100, 201, 239, 188, 53, 231, 146, 61, 51, 38, 132, 189, 9, 242, 153, 61, 27, 103, 89, 61, 126, 101, 144, 189, 254, 50, 199, 189, 53, 55, 38, 188, 206, 255, 80, 188, 90, 71, 185, 58, 162, 174, 121, 190, 102, 210, 96, 62, 31, 71, 209, 189, 182, 204, 65, 189, 101, 111, 46, 190, 3, 141, 108, 61, 25, 91, 124, 61, 156, 169, 59, 190, 123, 201, 115, 189, 105, 75, 112, 59, 70, 213, 213, 189, 12, 207, 18, 62, 162, 11, 222, 188, 4, 145, 17, 62, 18, 189, 247, 61, 69, 193, 114, 189, 102, 69, 167, 60, 94, 226, 129, 61, 81, 40, 113, 190, 196, 31, 195, 188, 94, 168, 121, 189, 114, 24, 151, 62, 240, 81, 226, 187, 237, 142, 169, 60, 137, 248, 58, 60, 78, 30, 116, 62, 1, 71, 115, 188, 190, 237, 0, 61, 108, 165, 79, 62, 218, 174, 211, 189, 75, 9, 183, 61, 28, 21, 25, 61, 72, 59, 225, 188, 132, 236, 128, 188, 24, 149, 95, 62, 5, 109, 252, 60, 66, 93, 214, 61, 109, 75, 161, 60, 33, 202, 27, 188, 68, 162, 62, 62, 133, 202, 32, 61, 177, 150, 57, 190, 173, 53, 99, 189, 229, 226, 2, 190, 16, 73, 116, 62, 168, 222, 29, 60, 56, 136, 67, 60, 115, 53, 242, 188, 103, 91, 104, 190, 70, 28, 247, 61, 26, 217, 73, 61, 93, 240, 81, 189, 7, 36, 60, 187, 129, 191, 181, 189, 46, 225, 244, 188, 127, 89, 192, 188, 106, 222, 56, 61, 87, 0, 164, 60, 154, 46, 161, 61, 64, 141, 139, 61, 80, 130, 185, 189, 248, 14, 160, 187, 239, 144, 172, 61, 18, 164, 149, 61, 16, 180, 145, 62, 217, 7, 182, 61, 12, 215, 10, 59, 26, 170, 146, 188, 181, 130, 226, 189, 211, 15, 68, 190, 183, 172, 60, 61, 197, 137, 13, 190, 89, 58, 121, 189, 158, 29, 212, 61, 72, 18, 25, 189, 251, 110, 234, 188, 26, 186, 27, 189, 245, 61, 72, 188, 186, 134, 179, 188, 41, 12, 56, 189, 16, 119, 221, 59, 192, 84, 159, 60, 1, 155, 30, 62, 44, 235, 148, 60, 148, 203, 144, 60, 131, 28, 37, 61, 16, 220, 52, 189, 240, 252, 237, 188, 249, 93, 185, 188, 212, 6, 2, 62, 140, 155, 1, 61, 230, 224, 0, 188, 160, 101, 149, 61, 17, 180, 179, 61, 240, 60, 113, 190, 248, 2, 104, 61, 48, 182, 206, 60, 19, 169, 143, 61, 153, 159, 28, 61, 168, 222, 133, 189, 74, 205, 171, 60, 211, 200, 118, 61, 137, 143, 25, 189, 107, 58, 183, 190, 254, 44, 107, 61, 107, 142, 205, 61, 72, 240, 171, 60, 48, 42, 36, 61, 28, 205, 138, 190, 64, 242, 139, 60, 167, 63, 11, 62, 125, 44, 7, 62, 186, 97, 0, 62, 103, 247, 242, 190, 55, 74, 96, 61, 142, 166, 85, 57, 78, 211, 163, 61, 139, 44, 16, 62, 183, 28, 163, 189, 110, 99, 129, 189, 116, 139, 182, 60, 120, 222, 64, 189, 100, 96, 99, 189, 160, 9, 16, 60, 121, 46, 142, 189, 159, 29, 1, 61, 21, 106, 135, 189, 93, 219, 142, 62, 107, 49, 48, 62, 221, 195, 40, 190, 93, 104, 158, 61, 251, 44, 98, 189, 125, 196, 255, 187, 148, 68, 141, 190, 40, 183, 174, 189, 97, 190, 0, 191, 80, 35, 221, 190, 156, 160, 131, 61, 247, 80, 185, 190, 250, 93, 2, 190, 250, 34, 100, 189, 95, 208, 193, 190, 252, 27, 173, 189, 75, 51, 143, 189, 235, 49, 8, 189, 92, 127, 191, 60, 23, 95, 146, 61, 105, 14, 43, 60, 152, 82, 21, 189, 41, 113, 157, 62, 17, 232, 5, 188, 53, 194, 88, 61, 47, 216, 3, 189, 184, 78, 193, 189, 153, 123, 155, 60, 127, 208, 182, 190, 46, 62, 2, 61, 230, 152, 57, 62, 247, 18, 14, 189, 152, 149, 145, 61, 240, 36, 128, 188, 105, 58, 14, 61, 4, 191, 141, 190, 148, 199, 110, 190, 222, 21, 195, 59, 219, 114, 205, 61, 232, 229, 245, 190, 136, 143, 67, 190, 71, 212, 136, 188, 70, 237, 10, 190, 172, 77, 144, 61, 171, 9, 142, 61, 189, 72, 50, 190, 27, 30, 12, 189, 35, 228, 205, 61, 15, 81, 28, 189, 195, 3, 101, 61, 177, 104, 227, 187, 220, 100, 236, 189, 4, 179, 214, 60, 42, 157, 149, 61, 165, 240, 13, 62, 162, 103, 196, 189, 202, 157, 187, 187, 192, 169, 234, 187, 152, 249, 244, 188, 121, 188, 29, 60, 32, 93, 101, 59, 60, 98, 33, 189, 129, 247, 16, 60, 118, 99, 159, 60, 207, 75, 143, 189, 47, 61, 194, 61, 137, 87, 135, 61, 247, 139, 178, 61, 156, 185, 133, 61, 85, 124, 162, 189, 206, 52, 133, 190, 113, 48, 135, 60, 169, 57, 145, 190, 237, 70, 33, 60, 254, 244, 179, 190, 60, 112, 194, 190, 220, 155, 251, 187, 93, 200, 40, 190, 65, 245, 83, 190, 91, 58, 95, 190, 253, 74, 194, 60, 113, 254, 136, 61, 108, 195, 194, 60, 204, 18, 158, 61, 192, 125, 46, 61, 80, 35, 15, 188, 52, 121, 87, 190, 8, 60, 13, 61, 124, 210, 141, 61, 32, 248, 129, 188, 102, 36, 109, 189, 227, 205, 169, 60, 116, 245, 75, 190, 163, 209, 25, 188, 73, 253, 30, 62, 196, 178, 138, 61, 226, 83, 53, 61, 37, 33, 56, 189, 79, 210, 216, 60, 231, 9, 168, 189, 21, 12, 167, 190, 206, 163, 151, 61, 147, 84, 49, 59, 16, 206, 181, 190, 122, 14, 56, 57, 18, 254, 106, 188, 215, 80, 151, 190, 103, 125, 5, 61, 255, 92, 134, 190, 202, 241, 20, 185, 142, 239, 110, 189, 81, 60, 17, 62, 149, 230, 120, 60, 187, 77, 21, 60, 98, 237, 156, 62, 200, 84, 186, 61, 0, 182, 147, 187, 232, 151, 9, 60, 91, 137, 191, 61, 146, 251, 8, 62, 14, 230, 59, 59, 97, 41, 218, 58, 5, 167, 120, 61, 116, 223, 161, 60, 52, 230, 5, 189, 136, 140, 73, 61, 77, 162, 95, 61, 215, 25, 123, 59, 47, 69, 186, 61, 8, 60, 161, 61, 171, 229, 23, 62, 129, 135, 17, 190, 48, 58, 122, 188, 81, 19, 219, 60, 53, 168, 232, 189, 203, 145, 44, 61, 133, 108, 163, 60, 83, 165, 97, 62, 93, 76, 101, 61, 75, 180, 11, 188, 168, 0, 198, 61, 64, 190, 204, 60, 40, 84, 221, 60, 74, 67, 22, 189, 232, 170, 118, 60, 37, 43, 185, 60, 45, 42, 64, 189, 234, 42, 19, 190, 170, 143, 133, 189, 106, 74, 145, 61, 9, 179, 32, 62, 204, 62, 133, 61, 59, 252, 163, 57, 196, 223, 105, 60, 149, 120, 98, 60, 192, 129, 25, 189, 46, 120, 14, 60, 83, 22, 39, 189, 1, 64, 68, 189, 224, 188, 59, 190, 248, 129, 147, 61, 27, 103, 42, 189, 241, 80, 141, 61, 34, 63, 59, 62, 166, 48, 185, 189, 200, 59, 56, 61, 61, 29, 134, 61, 197, 31, 24, 61, 148, 227, 221, 61, 147, 198, 55, 189, 143, 162, 23, 190, 121, 207, 6, 189, 224, 125, 67, 190, 44, 26, 165, 61, 94, 237, 135, 188, 82, 32, 192, 60, 40, 49, 89, 62, 54, 214, 210, 188, 12, 36, 56, 62, 20, 173, 4, 189, 12, 3, 220, 188, 84, 166, 74, 187, 152, 118, 133, 61, 27, 172, 162, 62, 253, 115, 74, 189, 152, 215, 211, 188, 182, 7, 82, 61, 104, 197, 248, 59, 162, 98, 145, 188, 155, 251, 128, 189, 64, 150, 105, 189, 213, 149, 149, 61, 51, 97, 85, 190, 47, 173, 157, 61, 247, 9, 182, 187, 255, 97, 157, 61, 192, 60, 190, 188, 172, 245, 167, 189, 4, 230, 141, 61, 193, 203, 53, 61, 19, 191, 49, 62, 146, 248, 69, 190, 182, 243, 101, 62, 227, 229, 166, 62, 188, 183, 128, 190, 92, 58, 86, 188, 39, 114, 4, 190, 108, 94, 2, 190, 160, 97, 53, 60, 125, 236, 83, 189, 88, 67, 226, 60, 78, 221, 64, 189, 20, 151, 11, 189, 12, 130, 231, 188, 248, 141, 69, 62, 94, 140, 58, 189, 7, 7, 20, 61, 168, 11, 41, 60, 19, 232, 31, 189, 0, 104, 96, 189, 166, 47, 135, 60, 36, 201, 249, 189, 5, 93, 212, 188, 112, 215, 40, 62, 172, 21, 100, 61, 192, 33, 115, 188, 140, 182, 152, 61, 61, 103, 193, 189, 206, 77, 99, 190, 208, 147, 50, 61, 153, 157, 4, 62, 35, 201, 234, 62, 130, 68, 168, 189, 177, 96, 3, 189, 239, 172, 240, 62, 136, 18, 174, 60, 169, 46, 236, 61, 67, 51, 49, 188, 224, 83, 229, 187, 195, 130, 5, 62, 95, 153, 240, 60, 193, 144, 1, 62, 23, 99, 17, 62, 167, 56, 154, 189, 86, 130, 129, 188, 73, 49, 148, 188, 35, 195, 90,